<pad>	0
<unk>	0
<s>	0
</s>	0
▁	-2.82856
?	-3.58098
,	-4.51324
の	-4.64559
!	-4.75206
は	-4.91827
...	-5.03511
.	-5.10403
を	-5.11111
が	-5.11832
、	-5.11899
に	-5.24664
을	-5.4752
이	-5.5213
だ	-5.53522
가	-5.55611
는	-5.56651
。	-5.59446
에	-5.67261
요	-5.72923
よ	-5.74953
と	-5.75673
의	-5.75736
で	-5.79448
도	-5.80902
를	-5.85071
지	-5.86125
은	-5.91921
か	-5.97475
▁-	-5.99023
▁안	-6.03245
な	-6.10073
고	-6.1598
▁그	-6.16039
"	-6.18463
も	-6.1912
▁수	-6.21909
▁내	-6.2332
▁내가	-6.2645
▁거야	-6.29814
・	-6.30591
▁난	-6.3329
から	-6.36971
▁이	-6.40339
▁"	-6.41783
로	-6.42845
야	-6.43572
わ	-6.51057
다	-6.57947
ね	-6.58927
에서	-6.6045
'	-6.61717
です	-6.63484
한	-6.66956
▁있어	-6.69756
▁네	-6.72103
んだ	-6.73085
▁좀	-6.73887
만	-6.74724
게	-6.77014
▁해	-6.79067
나	-6.79839
▁한	-6.83897
▁다	-6.85615
って	-6.87088
▁'	-6.89743
る	-6.9402
▁왜	-6.94037
▁더	-6.94532
▁게	-6.94699
죠	-6.96609
할	-6.96792
した	-6.97097
▁잘	-6.97376
▁것	-6.97671
으로	-6.98251
▁건	-6.99311
▁못	-6.99331
▁우리	-6.99765
▁거	-7.00213
해	-7.02277
し	-7.03
▁무슨	-7.04345
어	-7.04636
서	-7.05131
라	-7.06211
▁할	-7.06911
▁날	-7.07425
▁私は	-7.07472
과	-7.08382
▁하지만	-7.09313
して	-7.11508
면	-7.11536
する	-7.1184
인	-7.1196
▁어떻게	-7.12032
기	-7.12363
▁있는	-7.12971
하고	-7.1302
▁걸	-7.13978
▁この	-7.1459
▁그래	-7.1459
た	-7.1669
さ	-7.17226
▁여기	-7.21357
와	-7.22603
▁그리고	-7.2495
▁전	-7.25809
なら	-7.26819
▁있어요	-7.28165
▁でも	-7.28381
ら	-7.28579
▁넌	-7.29921
▁돼	-7.30369
▁그럼	-7.30614
▁없어	-7.307
▁네가	-7.329
▁저	-7.33319
▁말	-7.33997
하는	-7.34477
▁나	-7.34513
이야	-7.35425
▁정말	-7.35467
▁その	-7.3587
▁이제	-7.37608
▁마	-7.40398
て	-7.41444
네	-7.41849
스	-7.42921
だった	-7.43285
には	-7.436
▁지금	-7.44041
▁그냥	-7.44348
▁우리가	-7.44499
ぞ	-7.44535
▁彼は	-7.45061
)	-7.45283
」	-7.45856
▁거예요	-7.45892
입니다	-7.45993
▁그런	-7.4609
▁2	-7.46124
い	-7.46544
▁때	-7.46651
のか	-7.47964
자	-7.48895
ない	-7.50214
▁제	-7.50335
―	-7.50859
▁다른	-7.51566
▁그게	-7.5178
라고	-7.52147
▁それは	-7.54707
じゃない	-7.55043
▁1	-7.55059
에게	-7.55468
▁우린	-7.56698
▁당신	-7.56825
▁もう	-7.57059
▁뭐	-7.57167
ス	-7.59589
일	-7.59624
1	-7.60159
▁「	-7.60209
・・・	-7.60253
▁가	-7.60551
리	-7.61293
▁당신이	-7.61437
니	-7.62293
시	-7.6257
들	-7.63055
▁아니	-7.63067
▁봐	-7.63656
や	-7.64466
▁좋아	-7.64987
▁모든	-7.65995
▁줄	-7.66048
人	-7.66711
▁일	-7.66832
▁제가	-7.67521
ろ	-7.67905
▁이런	-7.6895
▁ああ	-7.69302
▁나는	-7.69474
▁그렇게	-7.69663
2	-7.70849
▁있다	-7.71511
하지	-7.7188
▁そして	-7.72116
▁다시	-7.73354
だろ	-7.73699
のは	-7.7408
▁두	-7.75269
▁あなたは	-7.7538
진	-7.75563
ー	-7.76127
▁너무	-7.76532
▁오	-7.76549
▁(	-7.76923
▁私の	-7.77262
▁알아	-7.77341
▁그건	-7.77423
▁나도	-7.77538
▁일이	-7.78596
▁아	-7.80676
▁말이야	-7.81192
▁그래서	-7.81218
예요	-7.81368
▁君は	-7.82703
いる	-7.82768
이에요	-7.83161
▁널	-7.83763
▁뭘	-7.8389
▁하는	-7.83934
▁어디	-7.84005
けど	-7.84145
ます	-7.84306
してる	-7.84805
잖아	-7.85065
▁이건	-7.85142
り	-7.85395
▁자	-7.86365
▁없어요	-7.86988
대	-7.87047
▁3	-7.87293
▁そう	-7.87473
まで	-7.87805
▁좋은	-7.87877
사	-7.88539
でも	-7.88717
▁なぜ	-7.88971
는데	-7.89002
아	-7.89305
さん	-7.89675
▁당신은	-7.89701
들이	-7.90181
▁俺は	-7.90427
▁私が	-7.91773
▁これは	-7.92959
▁몇	-7.93149
がある	-7.9354
▁너	-7.93984
▁사람이	-7.94476
s	-7.94855
한테	-7.95277
소	-7.95342
까지	-7.95396
▁어떤	-7.96134
다고	-7.96427
▁彼女は	-7.96934
▁있을	-7.97031
▁알고	-7.97306
▁お	-7.97537
▁될	-7.97749
▁사람	-7.97753
군	-7.98135
く	-7.98222
▁누가	-7.98533
▁같은	-7.98804
▁겁니다	-7.98954
いた	-7.99367
년	-7.99607
▁전에	-7.99636
へ	-8.00135
だろう	-8.00506
▁해요	-8.00597
▁いや	-8.00823
▁あなたの	-8.01209
▁그는	-8.01398
하게	-8.01422
▁だが	-8.01439
った	-8.01932
▁何	-8.01964
▁아직	-8.02548
▁아니야	-8.0279
▁같이	-8.03049
だよ	-8.0383
랑	-8.04761
▁또	-8.04833
▁오늘	-8.05133
처럼	-8.05583
▁まだ	-8.06255
だけ	-8.06312
▁여기서	-8.0661
▁あの	-8.07043
▁위해	-8.07226
▁모두	-8.0726
▁今	-8.07325
▁5	-8.08908
▁何か	-8.09672
▁それで	-8.09733
▁중	-8.10413
時	-8.108
던	-8.10813
수	-8.11114
▁아주	-8.11269
▁이게	-8.11891
네요	-8.11894
▁얘기	-8.11973
▁君の	-8.1198
주	-8.12657
▁사	-8.1317
거야	-8.14426
▁계속	-8.14579
▁하고	-8.14904
つ	-8.15077
▁진짜	-8.15448
▁だから	-8.15502
▁주	-8.15533
のよ	-8.15617
▁알	-8.1583
ました	-8.1622
분	-8.17158
마	-8.17413
▁私	-8.17754
▁바로	-8.18209
거	-8.18505
お	-8.1881
▁함께	-8.18944
했어	-8.18993
▁아냐	-8.19216
3	-8.19646
신	-8.19691
엔	-8.20768
트	-8.20867
ク	-8.21151
でしょ	-8.21303
なんだ	-8.21324
なんて	-8.21858
す	-8.21908
▁생각	-8.22233
어요	-8.22517
▁거죠	-8.22622
ト	-8.22694
▁하나	-8.22904
▁보고	-8.2309
▁빨리	-8.23534
질	-8.23633
▁우리는	-8.23719
드	-8.23776
そう	-8.24295
▁어서	-8.24521
▁あなたが	-8.24583
された	-8.24723
だと	-8.24758
부	-8.2494
▁거지	-8.25566
年	-8.25958
▁あなた	-8.26202
▁온	-8.26272
▁10	-8.26305
なかった	-8.26403
▁있지	-8.26502
▁하지	-8.26616
ラ	-8.27257
▁않아	-8.27498
ことを	-8.27524
こと	-8.276
▁친구	-8.28047
より	-8.28103
▁이렇게	-8.2849
いい	-8.28684
では	-8.28864
します	-8.29101
事	-8.29274
▁씨	-8.29487
▁같아	-8.29718
해서	-8.30334
▁그럴	-8.30352
지만	-8.30429
▁그가	-8.31023
구	-8.3125
▁보	-8.3136
▁돼요	-8.31555
▁얼마나	-8.31999
된	-8.32042
치	-8.33232
なの	-8.33265
▁괜찮아	-8.33459
▁갈	-8.33689
▁それが	-8.33771
とは	-8.33886
している	-8.33902
단	-8.33932
▁いい	-8.33984
▁대해	-8.34199
▁일을	-8.34324
▁수도	-8.3435
になる	-8.34394
め	-8.34471
▁彼の	-8.34982
よう	-8.35067
▁본	-8.35366
▁때문에	-8.35728
니까	-8.36132
하면	-8.36669
日	-8.36741
▁아니에요	-8.3713
▁말이	-8.37349
だな	-8.37465
ル	-8.37596
き	-8.37786
했어요	-8.37952
▁전부	-8.38503
この	-8.38574
보	-8.38998
者	-8.39454
できる	-8.39456
선	-8.39474
▁집에	-8.39525
▁것이다	-8.39755
▁차	-8.39794
들을	-8.4004
分	-8.40686
▁그걸	-8.40876
しろ	-8.41263
오	-8.41374
들은	-8.41401
러	-8.42286
▁ええ	-8.42401
▁없는	-8.42416
▁お前は	-8.42554
▁みんな	-8.42728
ん	-8.42819
ある	-8.43159
습니다	-8.43499
▁시간	-8.43592
リー	-8.43807
▁있습니다	-8.44088
ズ	-8.44459
▁당신을	-8.44635
▁君が	-8.44771
物	-8.44907
▁했어	-8.45263
란	-8.45371
▁많이	-8.45433
▁자기	-8.45482
▁전화	-8.45495
▁제발	-8.45541
▁もし	-8.45588
..	-8.45776
건	-8.45971
▁적	-8.46134
▁몰라	-8.46143
その	-8.4632
장	-8.46487
▁僕は	-8.46546
이나	-8.46597
▁I	-8.46781
ド	-8.46898
▁4	-8.47043
ア	-8.47066
▁근데	-8.47135
걸	-8.47387
リ	-8.47472
▁しかし	-8.47553
▁6	-8.47703
う	-8.48118
かな	-8.48192
해요	-8.48653
▁와	-8.48658
세요	-8.48662
▁필요	-8.49426
길	-8.49442
▁참	-8.49518
▁들어	-8.49652
▁않을	-8.49812
인데	-8.49898
ように	-8.49912
ば	-8.50069
でしょう	-8.50116
르	-8.50199
긴	-8.50222
비	-8.50326
▁また	-8.50371
ですか	-8.50522
と思う	-8.50572
실	-8.5058
▁俺の	-8.50694
▁これ	-8.50871
▁이거	-8.51262
▁그의	-8.51277
・・	-8.52172
▁둘	-8.52314
했다	-8.52407
として	-8.52416
▁아니라	-8.52494
▁ありがとう	-8.5256
래	-8.52832
▁엄마	-8.52928
▁彼が	-8.53268
くれ	-8.53511
구나	-8.53554
▁아무도	-8.53755
▁대	-8.53973
데	-8.54003
▁알았어	-8.54226
にも	-8.54479
▁나한테	-8.54973
▁세	-8.55098
린	-8.55205
히	-8.55436
미	-8.55448
하기	-8.55653
해야	-8.56358
もの	-8.56649
▁말을	-8.56734
▁거기	-8.57129
▁ちょっと	-8.5715
ではない	-8.57323
부터	-8.57327
▁아빠	-8.57356
프	-8.57395
▁さあ	-8.57447
▁살	-8.57591
▁그를	-8.57764
이다	-8.57854
겠지	-8.57869
든	-8.59355
ま	-8.5942
상	-8.59532
タ	-8.59711
▁어	-8.59804
보다	-8.59933
▁おい	-8.60001
▁자네	-8.60034
▁번	-8.60117
잖아요	-8.60296
▁本当に	-8.60423
군요	-8.60442
▁이상	-8.60519
려	-8.60557
거든	-8.60578
いて	-8.60597
적인	-8.60604
▁뭔가	-8.60678
▁많은	-8.60895
▁俺が	-8.60946
▁새	-8.61103
▁큰	-8.61147
前に	-8.61165
▁그들은	-8.61215
적	-8.61372
▁된	-8.61531
中	-8.61628
▁彼らは	-8.61635
しない	-8.61725
합니다	-8.61772
じゃ	-8.62041
▁그렇지	-8.62055
▁君	-8.62156
▁아뇨	-8.62198
하	-8.6249
▁가서	-8.62647
▁비	-8.62925
み	-8.63308
▁가장	-8.63415
ム	-8.6393
▁이미	-8.63953
▁후	-8.63959
▁당장	-8.64065
何	-8.64092
▁있죠	-8.6416
▁바	-8.64832
▁사람들이	-8.65269
▁순	-8.65423
▁그만	-8.65464
디	-8.65555
▁가지	-8.6575
人の	-8.65886
▁말해	-8.65977
▁개	-8.66203
います	-8.66259
ことは	-8.6634
려고	-8.66366
▁どうして	-8.66465
▁そんな	-8.66477
세	-8.66671
▁여자	-8.67148
t	-8.67364
んです	-8.67438
다면	-8.67443
▁아는	-8.67692
という	-8.67739
っ	-8.67918
▁아니면	-8.67964
れば	-8.68049
크	-8.68106
라는	-8.68113
について	-8.68394
전	-8.68536
▁이걸	-8.6863
なさい	-8.68769
▁싶어	-8.68806
제	-8.68999
▁그들이	-8.69396
だけだ	-8.6944
▁곧	-8.69453
▁다들	-8.69499
▁아무것도	-8.69684
▁없다	-8.69983
今	-8.70029
▁동안	-8.702
子	-8.7035
▁もっと	-8.70363
▁彼	-8.70618
▁알아요	-8.7064
▁그녀는	-8.70714
▁뭐야	-8.70742
ぜ	-8.7076
しました	-8.70983
이라고	-8.71108
てる	-8.71171
우	-8.71258
▁봐요	-8.71451
▁아무	-8.71563
그	-8.71594
れ	-8.71643
やる	-8.71654
▁것도	-8.71772
▁우릴	-8.71815
▁피	-8.72181
のために	-8.72211
(	-8.72371
▁我々は	-8.72404
▁잠깐	-8.72884
かも	-8.73022
성	-8.73179
出	-8.73383
▁안녕	-8.73754
▁부	-8.73812
マン	-8.73895
事を	-8.73927
▁여긴	-8.74039
하다	-8.74238
▁보내	-8.74373
▁애	-8.74437
▁생각해	-8.74812
5	-8.74817
▁사람을	-8.74888
▁당신의	-8.7501
▁같아요	-8.75171
とか	-8.75348
のに	-8.75385
▁FBI	-8.75387
何か	-8.75892
▁뭐가	-8.7598
▁말고	-8.7623
▁볼	-8.76311
ナ	-8.76391
▁만약	-8.76415
君	-8.76559
▁가지고	-8.76566
▁お前の	-8.76567
▁입	-8.76643
▁대한	-8.76737
▁있고	-8.76741
だって	-8.76937
▁타	-8.77027
원	-8.77092
私は	-8.77594
▁どう	-8.77649
見	-8.77758
▁되	-8.77817
으면	-8.7807
ッ	-8.78072
4	-8.78104
까	-8.78122
▁저기	-8.7813
▁何を	-8.78244
내	-8.78282
▁집	-8.78358
▁남자	-8.78645
▁응	-8.78677
▁해야	-8.78807
번	-8.78884
▁하	-8.78917
わね	-8.79015
지도	-8.79043
もう	-8.79149
▁손	-8.79429
▁お前	-8.79436
▁있다고	-8.79437
▁걱정	-8.79463
▁はい	-8.79606
▁사람은	-8.79671
▁했어요	-8.7969
한다	-8.7972
▁그래요	-8.79734
이죠	-8.79845
▁올	-8.79858
される	-8.79948
フ	-8.80121
▁彼女	-8.80229
手	-8.8025
▁물	-8.80402
マ	-8.80517
人は	-8.80645
▁항상	-8.8066
▁혼자	-8.8088
▁−	-8.81194
コ	-8.8122
▁よし	-8.81342
気	-8.81418
▁〈	-8.81424
こ	-8.8146
▁그거	-8.81617
カ	-8.8168
냐	-8.81714
▁맞아	-8.81771
ロ	-8.81938
私の	-8.82086
에요	-8.82128
▁유	-8.82271
▁それ	-8.8232
▁절대	-8.82666
いない	-8.82711
타	-8.82804
▁총	-8.82853
▁안에	-8.83152
せ	-8.83519
▁다음	-8.83574
私	-8.837
봐	-8.83832
▁불	-8.83861
▁じゃあ	-8.83886
後	-8.84158
良い	-8.84378
여	-8.84432
다는	-8.84452
一	-8.84469
そうだ	-8.84638
▁것을	-8.84744
이지	-8.84788
▁미	-8.84909
겠죠	-8.8493
してた	-8.84961
時間	-8.85092
▁거요	-8.85322
だから	-8.85352
▁안돼	-8.85479
▁시작	-8.85615
▁좋아요	-8.85649
はない	-8.85675
▁시간이	-8.85754
▁무	-8.85772
▁있었어	-8.85859
조	-8.85927
ン	-8.85963
▁何も	-8.85989
▁소리	-8.86018
▁가는	-8.86118
▁줘	-8.86169
▁준비	-8.86503
▁그런데	-8.86693
サ	-8.86768
▁それを	-8.86941
시간	-8.87298
▁돈	-8.87485
え	-8.87503
▁않아요	-8.87787
▁원하는	-8.87838
▁20	-8.87843
:	-8.87961
でした	-8.87983
개	-8.88069
▁데	-8.88195
▁구	-8.88296
▁どんな	-8.88315
▁8	-8.88319
줄	-8.88341
살	-8.88375
▁이젠	-8.88514
▁처음	-8.88735
▁가자	-8.88768
レ	-8.88774
▁모	-8.8896
▁일은	-8.89097
▁俺	-8.89218
m	-8.89337
〉	-8.89455
▁꼭	-8.89501
▁문	-8.89604
즈	-8.89836
▁괜찮아요	-8.90147
▁대체	-8.90272
6	-8.90399
▁이봐	-8.90452
▁自分の	-8.90804
▁위해서	-8.90856
ください	-8.91038
▁기억	-8.91138
라도	-8.91218
▁지금은	-8.91298
ブ	-8.91464
できない	-8.91502
たい	-8.91561
▁열	-8.91604
▁있나	-8.91641
ために	-8.91674
▁시	-8.91709
させる	-8.9171
▁배	-8.91721
▁먼저	-8.918
大	-8.92
▁그래도	-8.92186
▁반	-8.92281
▁ただ	-8.92424
▁나가	-8.92516
다니	-8.9268
チ	-8.92726
になった	-8.93104
▁いつも	-8.93307
▁방금	-8.93318
차	-8.93344
▁これが	-8.93353
▁너도	-8.93424
▁보여	-8.93449
人が	-8.93496
▁今は	-8.93655
▁신	-8.93699
イ	-8.93753
▁the	-8.93801
▁ここに	-8.9383
는지	-8.93907
▁내게	-8.93926
▁분	-8.94006
▁소	-8.94467
하죠	-8.94718
用	-8.94746
▁他の	-8.9496
▁조	-8.95213
▁되는	-8.9523
▁사실	-8.95242
당	-8.95282
▁원	-8.95377
]	-8.95454
▁있는데	-8.95485
명	-8.95506
▁よく	-8.9552
ここに	-8.95522
▁you	-8.95981
화	-8.96087
▁중요한	-8.96181
모	-8.96259
られる	-8.9645
への	-8.96787
所	-8.96797
オ	-8.96884
回	-8.96914
▁それに	-8.96928
▁있으면	-8.96962
식	-8.96981
▁누구	-8.97114
▁그러니까	-8.97156
▁문제	-8.97171
▁하면	-8.97284
적으로	-8.97302
▁발	-8.97387
▁7	-8.97417
▁誰も	-8.97452
▁됐어	-8.97632
▁고마워	-8.97661
▁명	-8.97764
▁내일	-8.97948
▁절	-8.98152
▁우리의	-8.98234
だぞ	-8.98264
▁고마워요	-8.98314
▁彼女の	-8.98798
ません	-8.98822
▁[	-8.98847
したい	-8.98926
ノ	-8.99118
▁어때	-8.99157
ほど	-8.99171
물	-8.99288
▁존	-8.99333
▁밤	-8.99424
▁誰か	-8.9953
グ	-8.99673
터	-8.99773
▁もちろん	-8.99786
▁달	-9.00029
인지	-9.00044
간	-9.00451
정	-9.00588
▁자네가	-9.00697
▁말은	-9.00795
▁いいえ	-9.00976
▁나를	-9.00977
-	-9.01077
▁세상에	-9.01333
▁나와	-9.01378
ニ	-9.01855
8	-9.01865
▁뭐라고	-9.02008
性	-9.02141
どう	-9.02148
ミ	-9.02365
a	-9.02383
▁성	-9.02602
었어	-9.02787
▁私に	-9.02788
▁저는	-9.02796
的な	-9.02826
▁ここで	-9.02882
▁分かった	-9.02885
▁직접	-9.03013
▁마지막	-9.0304
▁こんな	-9.03049
바	-9.03208
피	-9.03439
話	-9.03493
しよう	-9.03538
られた	-9.0366
거든요	-9.03668
루	-9.03856
行く	-9.03967
▁아마	-9.03996
わよ	-9.04077
みたい	-9.04084
かもしれない	-9.04146
겠어	-9.04194
ター	-9.04285
였어	-9.04541
▁언제	-9.04547
▁양	-9.04572
事は	-9.04573
▁사람들	-9.0465
たら	-9.04677
け	-9.04824
考え	-9.04846
言った	-9.05118
▁있잖아	-9.05128
했습니다	-9.05283
▁죽은	-9.05293
▁ア	-9.05326
バ	-9.05348
▁まあ	-9.0541
▁늘	-9.05646
릴	-9.05786
▁뒤	-9.05823
▁문제가	-9.05982
▁간	-9.06053
▁이리	-9.06149
며	-9.06197
▁誰が	-9.06409
무	-9.06455
▁どうやって	-9.06588
るんだ	-9.06925
▁彼女が	-9.07009
▁お前が	-9.07216
▁경찰	-9.07306
バー	-9.07386
▁물론	-9.07408
▁있었어요	-9.0753
男	-9.07583
▁少し	-9.07659
나요	-9.07662
▁私も	-9.07666
▁사랑	-9.07724
면서	-9.07807
두	-9.07929
▁一緒に	-9.08031
▁방	-9.08241
중	-9.08245
관	-9.08248
▁코	-9.0831
む	-9.08343
それ	-9.08363
▁그녀가	-9.08426
してくれ	-9.0845
▁필요해	-9.08491
호	-9.08854
발	-9.08869
▁재	-9.09149
파	-9.0923
知ってる	-9.09276
론	-9.09283
ツ	-9.09301
があった	-9.09425
▁皆	-9.09494
▁저도	-9.09746
ディ	-9.09765
のように	-9.09918
本	-9.10153
▁僕の	-9.10371
欲しい	-9.10416
シ	-9.10429
▁한다	-9.10528
だわ	-9.10626
▁そうだ	-9.10759
용	-9.10762
▁스	-9.10844
▁아버지	-9.10878
계	-9.10924
▁早く	-9.10951
ソン	-9.10988
▁미안해	-9.10992
▁아이	-9.11045
▁기	-9.11054
ってる	-9.11301
しか	-9.114
▁とても	-9.11449
티	-9.1151
동	-9.11522
레	-9.11538
카	-9.11629
▁違う	-9.11668
▁음	-9.11938
▁안녕하세요	-9.11985
▁도움이	-9.12051
게요	-9.12347
▁어디서	-9.12358
난	-9.1248
死ぬ	-9.12488
▁짓을	-9.1251
▁죽을	-9.12614
▁거라고	-9.12615
▁것이	-9.12616
はずだ	-9.12781
▁너희	-9.12785
고요	-9.12837
▁9	-9.12846
▁to	-9.12851
▁오래	-9.13004
▁없을	-9.13166
▁약	-9.13231
▁없이	-9.13231
▁나쁜	-9.13299
▁합니다	-9.13304
거나	-9.13306
▁신경	-9.13432
브	-9.13498
▁大丈夫	-9.13552
ジ	-9.13558
안	-9.13578
10	-9.13604
운	-9.13613
방	-9.13694
様	-9.13736
인가	-9.13852
▁있는지	-9.13871
▁30	-9.13889
위	-9.13946
▁돈을	-9.13978
していた	-9.14
▁잡아	-9.14018
▁싫어	-9.14046
도록	-9.14131
e	-9.14225
▁사람들은	-9.14405
▁수가	-9.14422
通り	-9.14714
키	-9.14778
n	-9.15032
ず	-9.15293
何を	-9.15395
なんか	-9.15608
したら	-9.1566
のね	-9.15694
코	-9.15726
▁가야	-9.15731
▁つまり	-9.15754
ダ	-9.1577
きた	-9.15975
▁すぐに	-9.16061
▁몰라요	-9.16095
초	-9.16217
▁ママ	-9.16415
やった	-9.16522
力	-9.16525
▁말도	-9.1668
라면	-9.16785
水	-9.16843
▁해도	-9.1692
下さい	-9.16926
がない	-9.16967
▁공격	-9.17008
▁부인	-9.17077
▁私を	-9.17122
ことが	-9.1714
ている	-9.17173
それを	-9.17206
▁없습니다	-9.17306
▁大	-9.17335
かい	-9.17481
あなたの	-9.17533
지는	-9.17646
▁확인	-9.17659
▁전혀	-9.17677
ドル	-9.17821
▁全部	-9.17834
▁선	-9.17837
リン	-9.17898
▁잘못	-9.17955
▁감사합니다	-9.18133
まだ	-9.18316
道	-9.18366
▁ここは	-9.18432
▁ジョン	-9.18438
▁한번	-9.18462
▁パパ	-9.18486
야지	-9.18512
と言った	-9.18701
▁눈	-9.18714
d	-9.18871
はず	-9.18891
▁혹시	-9.19175
▁거의	-9.19229
▁彼を	-9.19347
A	-9.19456
▁알았어요	-9.19532
取り	-9.19576
▁왔어	-9.19601
▁ご	-9.19614
私が	-9.1965
▁여러분	-9.19719
キ	-9.19725
ち	-9.19755
▁파	-9.19859
ないと	-9.1989
時に	-9.19941
회	-9.19944
▁정	-9.19984
▁찾을	-9.20237
▁적이	-9.20261
이랑	-9.20385
▁요원	-9.20522
上	-9.20603
あ	-9.20614
家	-9.20678
될	-9.20944
▁갖고	-9.21202
君の	-9.21233
으니	-9.21352
▁생각이	-9.2136
▁ス	-9.21411
的	-9.21422
▁놈	-9.21554
▁보면	-9.21565
▁그녀를	-9.2163
께	-9.21658
산	-9.21712
했는데	-9.21731
▁필요한	-9.21875
국	-9.21973
▁ある	-9.22107
だが	-9.22127
んだよ	-9.22145
▁정도	-9.22154
月	-9.22168
女	-9.22191
▁카	-9.22209
▁이름은	-9.22456
度	-9.22458
のこと	-9.22468
がいる	-9.22476
했죠	-9.22505
▁待って	-9.22545
出来る	-9.22592
あなた	-9.22622
▁거에요	-9.22705
▁말야	-9.2273
체	-9.22782
00	-9.22841
▁새로운	-9.23061
▁살아	-9.23497
re	-9.23929
했지	-9.23979
ビ	-9.24039
▁일이야	-9.24069
▁이름이	-9.24262
▁僕が	-9.24428
▁아침	-9.24569
▁팔	-9.24592
것	-9.24656
거에요	-9.24676
エ	-9.24782
음	-9.24807
ニー	-9.24901
▁젠장	-9.24901
間	-9.25078
▁매	-9.25118
前	-9.25136
仕事	-9.25165
▁서	-9.25181
▁12	-9.25203
▁어느	-9.25273
▁공	-9.2528
이라	-9.25304
方	-9.25366
노	-9.25367
▁만나	-9.25367
▁가요	-9.25421
▁지난	-9.25501
▁놈이	-9.25539
違う	-9.2555
▁新しい	-9.25558
目	-9.25605
버	-9.25618
o	-9.25746
이요	-9.25775
▁때까지	-9.25844
씨	-9.25879
▁그러니	-9.25896
더	-9.25896
▁기다려	-9.25931
▁하죠	-9.25972
▁찾아	-9.26211
▁있다면	-9.26216
▁강	-9.26435
場所	-9.26439
テ	-9.26462
▁했는데	-9.26506
되	-9.26549
토	-9.2668
▁제대로	-9.26837
ゴ	-9.26884
これ	-9.2697
반	-9.26999
에는	-9.27026
▁후에	-9.27059
▁산	-9.27064
ご	-9.27102
▁알지	-9.2714
▁있다는	-9.27297
名	-9.27366
▁거짓말	-9.27511
ような	-9.27646
▁아들	-9.27707
▁이야기	-9.27897
▁싶지	-9.27928
発	-9.27979
ット	-9.27987
월	-9.28106
온	-9.2815
ないわ	-9.28181
彼の	-9.28234
▁막	-9.28294
▁ここ	-9.2836
▁엄마가	-9.28372
▁아직도	-9.28447
▁선생님	-9.28544
▁良い	-9.28548
▁これで	-9.28597
▁わかった	-9.28852
▁쓰	-9.2893
地	-9.28971
▁술	-9.29048
分かる	-9.29055
▁아닌	-9.29207
機	-9.29248
줘	-9.29315
心	-9.2937
▁사건	-9.29454
▁누군가	-9.29469
ラー	-9.29539
▁이번	-9.29562
シー	-9.29611
になって	-9.29759
▁19	-9.2979
見て	-9.29905
れる	-9.302
来た	-9.30309
▁ずっと	-9.30385
彼は	-9.30455
▁일어나	-9.30502
저	-9.30634
にいる	-9.30771
電話	-9.30787
대로	-9.30912
▁15	-9.30923
▁죽일	-9.30965
よね	-9.31016
また	-9.31057
겠어요	-9.31169
▁봤어	-9.31195
ザ	-9.31247
戦	-9.31289
かしら	-9.31305
▁들어가	-9.31515
ティ	-9.31522
下	-9.31725
▁同じ	-9.31795
▁나중에	-9.31867
しています	-9.31924
말	-9.31946
ところ	-9.32019
言って	-9.32164
▁만들	-9.32226
悪い	-9.32324
言う	-9.32333
行	-9.32545
とき	-9.32745
▁선택	-9.32822
▁벌	-9.32876
▁머리	-9.32894
이고	-9.32956
7	-9.33117
▁만들어	-9.33129
▁A	-9.33231
▁텐데	-9.33356
▁‐	-9.33439
겠다	-9.33448
▁우리를	-9.33449
▁있었다	-9.33549
달	-9.33581
▁C	-9.33598
▁お願い	-9.33614
했던	-9.33647
ですね	-9.33713
▁리	-9.33788
▁뭔지	-9.33791
▁짓	-9.33804
▁살인	-9.33881
▁싶은	-9.33898
▁연락	-9.34015
イン	-9.3407
천	-9.34201
워	-9.34365
;	-9.34443
▁그때	-9.34495
「	-9.34526
▁있나요	-9.34541
▁私たちは	-9.34648
▁같은데	-9.34687
ウ	-9.34776
▁ほら	-9.34801
▁僕	-9.34827
んじゃない	-9.34854
본	-9.34892
すれば	-9.34917
이란	-9.35034
▁그러면	-9.35036
▁따라	-9.35083
울	-9.35132
구요	-9.35186
外	-9.35316
なく	-9.35345
▁치	-9.35363
▁대신	-9.35502
点	-9.35578
기를	-9.35741
▁않는	-9.35746
하라	-9.35793
金	-9.35804
を見て	-9.35805
▁{	-9.35905
来る	-9.35924
ことだ	-9.35934
▁결정	-9.3594
S	-9.36111
先	-9.36154
▁何が	-9.36272
하세요	-9.36304
んだろ	-9.36598
슨	-9.36714
▁あんた	-9.36732
▁믿어	-9.36788
었어요	-9.36807
ネ	-9.36829
▁잠깐만	-9.37001
▁見	-9.37048
させて	-9.37125
よく	-9.37179
생	-9.37239
더군요	-9.37295
▁딱	-9.37354
학	-9.37361
연	-9.37389
プ	-9.37438
병	-9.3747
かった	-9.37499
ロー	-9.37519
▁딸	-9.37619
약	-9.37756
▁たぶん	-9.37793
来	-9.37878
何も	-9.38092
ック	-9.38101
ようだ	-9.38131
▁했지	-9.38137
▁맙소사	-9.38206
▁いいか	-9.38328
금	-9.3838
▁밖에	-9.38462
▁너는	-9.38481
▁단	-9.38504
이라도	-9.38544
▁첫	-9.38677
スト	-9.38684
誰か	-9.38711
来て	-9.3872
▁떠나	-9.38727
▁남	-9.38786
▁여	-9.38875
▁만든	-9.38991
▁それから	-9.39342
▁예	-9.39414
했고	-9.39454
あの	-9.39491
私に	-9.39495
▁あなたに	-9.39592
▁주세요	-9.39606
だけど	-9.39785
に行く	-9.39823
져	-9.40024
愛	-9.40027
▁의사	-9.40049
▁어디로	-9.40173
じゃないか	-9.40212
と思った	-9.40229
達	-9.40398
▁S	-9.40421
▁사람들을	-9.40446
▁이해	-9.40477
▁서로	-9.40524
행	-9.40591
無い	-9.40695
였어요	-9.40798
▁エ	-9.40858
▁내려	-9.4091
したの	-9.40934
▁별로	-9.4105
▁위한	-9.41081
형	-9.41137
▁여기에	-9.41275
▁별	-9.41476
着	-9.41557
▁작은	-9.41557
▁仕事	-9.41597
님	-9.41764
が必要だ	-9.41824
なる	-9.41887
▁彼に	-9.42051
▁경	-9.42207
하려고	-9.42276
▁今日	-9.42335
▁아닙니다	-9.42471
▁않은	-9.42552
知らない	-9.42664
▁모르겠어	-9.42709
▁맞아요	-9.42715
▁불러	-9.42787
奴	-9.42839
なきゃ	-9.42895
▁누군지	-9.42929
▁모르는	-9.43019
面	-9.43108
▁형	-9.43209
からだ	-9.43326
▁없지	-9.43344
問題	-9.43503
▁총을	-9.43598
▁これを	-9.43631
んで	-9.43642
돼	-9.43671
▁一	-9.43853
▁我々の	-9.43854
され	-9.43862
▁가고	-9.43957
▁a	-9.44239
▁아빠가	-9.4438
▁받아	-9.44515
ましょう	-9.44743
らしい	-9.4477
▁그저	-9.44781
9	-9.44786
▁나랑	-9.44828
私を	-9.44855
▁誰かが	-9.44923
▁됐어요	-9.45144
▁마세요	-9.45248
本当に	-9.45269
生	-9.4529
▁왔어요	-9.45412
見た	-9.45417
▁정신	-9.45452
▁찾고	-9.45633
T	-9.45736
▁꽤	-9.45743
捜査官	-9.45853
全て	-9.459
ガ	-9.45931
ing	-9.46061
r	-9.46144
─	-9.46168
してない	-9.46203
んですか	-9.46282
▁번째	-9.46315
計画	-9.46323
▁봤어요	-9.4638
▁와서	-9.46383
▁うん	-9.46715
体	-9.46857
やって	-9.47069
▁잠	-9.47076
▁동	-9.47113
会	-9.47213
▁시간을	-9.4722
を殺した	-9.47247
メ	-9.47327
▁부탁	-9.47451
▁君に	-9.47587
▁きっと	-9.47604
▁조사	-9.47636
死	-9.47659
▁돌아가	-9.47819
▁全て	-9.47844
されてる	-9.47852
人を	-9.47933
博士	-9.47943
스트	-9.47976
関係	-9.48074
ビー	-9.48127
▁맞	-9.48149
▁대해서	-9.48198
▁인간	-9.48332
数	-9.48469
▁미안해요	-9.48633
ずっと	-9.48639
▁했죠	-9.48645
▁없고	-9.48681
▁유일한	-9.48709
彼を	-9.48727
▁완전히	-9.48822
られない	-9.48848
▁실	-9.48859
傷	-9.48965
▁칼	-9.48986
▁길	-9.49201
▁何で	-9.49338
▁듣고	-9.49344
너	-9.49355
포	-9.49377
▁않고	-9.49406
▁미친	-9.4942
▁버	-9.49434
대요	-9.49453
全部	-9.49464
▁니가	-9.49489
▁않았어	-9.49604
くる	-9.4961
▁포	-9.49733
▁통	-9.49816
なければ	-9.49817
少し	-9.49825
▁싶어요	-9.49836
▁필	-9.49913
▁말할	-9.50014
口	-9.50116
▁없	-9.50196
▁피터	-9.50229
▁대로	-9.50247
박	-9.50249
▁手	-9.50266
長	-9.50282
とも	-9.50292
날	-9.50305
▁잭	-9.50517
밖에	-9.50545
▁미국	-9.50687
▁では	-9.50702
▁것은	-9.50762
▁nbsp	-9.50813
▁なんで	-9.51013
▁방법이	-9.5105
▁조금	-9.51086
▁두고	-9.51196
番	-9.5126
▁경찰이	-9.51269
夜	-9.51304
▁그녀의	-9.51353
h	-9.51369
증	-9.51491
など	-9.51525
이었어	-9.51595
あなたは	-9.51678
겠습니다	-9.51865
▁말하는	-9.5193
一緒に	-9.51985
▁너한테	-9.52017
ですよ	-9.52144
▁벌써	-9.52177
다가	-9.52211
법	-9.52213
通	-9.52365
▁멋진	-9.52553
▁M	-9.52556
▁사이	-9.52585
▁비밀	-9.52628
공	-9.52738
▁훨씬	-9.52765
いました	-9.52793
▁이름	-9.52812
▁상	-9.52825
▁놈들이	-9.52826
▁죽인	-9.52832
じ	-9.52897
▁거기서	-9.52909
ここで	-9.53087
▁マ	-9.53137
▁않으면	-9.53147
y	-9.53149
らない	-9.5316
万	-9.53179
▁마요	-9.53203
もない	-9.53289
彼	-9.5337
▁곳	-9.53417
▁사진	-9.53456
▁그들을	-9.53482
▁무기	-9.53507
▁결혼	-9.53595
점	-9.53784
家族	-9.53828
るの	-9.53842
女性	-9.53869
▁보안	-9.53947
させた	-9.54111
▁좋을	-9.54321
なのか	-9.54344
作	-9.54391
인가요	-9.54425
유	-9.54481
▁알았지	-9.54511
ねえ	-9.54592
ポ	-9.54619
문	-9.5464
感じ	-9.54644
ひ	-9.54702
속	-9.5479
▁オ	-9.54805
양	-9.5485
を見つけた	-9.54881
거지	-9.54883
▁이것	-9.54886
▁ねえ	-9.54915
으	-9.55001
にして	-9.55061
▁제일	-9.55166
色	-9.55207
▁완전	-9.55242
▁테니	-9.5527
통	-9.55295
▁약속	-9.55374
と同じ	-9.55405
▁잔	-9.55426
▁今日は	-9.55466
심	-9.55569
スター	-9.55648
▁電話	-9.55733
▁너의	-9.55859
自分の	-9.55889
レン	-9.55889
▁친구가	-9.55936
車	-9.55987
까요	-9.55996
するんだ	-9.56105
▁거다	-9.56158
▁彼女を	-9.56178
▁찾는	-9.56215
C	-9.56222
갈	-9.564
다고요	-9.56428
▁어제	-9.56437
▁아니다	-9.5644
했을	-9.56546
▁じゃ	-9.56618
したんだ	-9.56713
あなたが	-9.56804
ので	-9.56837
ろう	-9.56845
더군	-9.56885
なくて	-9.57058
곤	-9.57176
▁이름을	-9.57329
▁알게	-9.57435
神	-9.57438
▁見て	-9.5747
つの	-9.57499
▁가족	-9.57534
皆	-9.57552
▁것처럼	-9.5761
▁속	-9.57618
▁すべて	-9.57715
▁分かってる	-9.57725
しないと	-9.57727
▁들	-9.57743
▁진	-9.57758
を見	-9.57849
▁저희	-9.5789
▁얼마	-9.57902
▁확실히	-9.5803
一人	-9.58059
단다	-9.58083
出す	-9.58093
彼女	-9.58119
겠지만	-9.58163
中に	-9.58165
▁そこに	-9.58198
▁죽어	-9.58239
を見た	-9.58246
▁거래	-9.58264
弾	-9.58281
わかる	-9.58345
▁보는	-9.58366
에선	-9.58445
▁奴は	-9.58499
の為に	-9.58559
▁되지	-9.58578
ダー	-9.58646
함	-9.58689
知っている	-9.58797
▁하는데	-9.58805
▁가면	-9.58821
▁죽	-9.5886
▁호	-9.58867
▁뒤에	-9.58873
と一緒に	-9.58918
▁あと	-9.58957
ため	-9.58971
君は	-9.59091
話した	-9.59095
▁저녁	-9.59152
トン	-9.59161
권	-9.59222
品	-9.59293
歳	-9.59312
直	-9.59325
▁건데	-9.59337
▁あれは	-9.59349
▁기분	-9.59506
俺の	-9.59537
▁되면	-9.59577
者は	-9.59617
されて	-9.59662
ばかり	-9.59668
▁결국	-9.59682
▁그러지	-9.59829
▁위	-9.59936
みたいに	-9.60016
▁사는	-9.60031
聞いて	-9.60238
▁준	-9.60273
屋	-9.60346
にある	-9.60452
ラン	-9.60533
ed	-9.60535
▁쇼	-9.60622
行った	-9.60623
▁해서	-9.6067
子供	-9.60685
▁있던	-9.60708
감	-9.60717
▁모르겠어요	-9.60743
▁노	-9.60947
▁あぁ	-9.60954
▁계획	-9.60957
▁あなたを	-9.60961
▁편	-9.6101
事が	-9.61054
居	-9.61109
▁家族	-9.61149
それは	-9.61205
▁일단	-9.61246
方が	-9.61261
임	-9.61315
▁여자가	-9.6134
}	-9.614
だね	-9.61408
デ	-9.61431
▁あ	-9.6144
▁있게	-9.61461
ですが	-9.61516
▁ごめんなさい	-9.61625
▁やめて	-9.61682
▁やあ	-9.61756
▁知ってる	-9.61949
出来ない	-9.62016
▁열어	-9.62116
誰	-9.6217
거라	-9.62198
▁아니지	-9.62261
▁있어서	-9.6245
재	-9.62468
▁가진	-9.62487
▁돌	-9.62539
▁데리고	-9.62604
▁すぐ	-9.62605
できた	-9.62647
▁집에서	-9.627
테	-9.62838
すると	-9.62975
失	-9.63137
▁감시	-9.63149
▁이유가	-9.63303
▁망할	-9.63326
ボ	-9.63342
みんな	-9.6335
モ	-9.63369
いく	-9.6351
▁죄송해요	-9.63693
겨	-9.63748
▁건가	-9.63768
理由	-9.63814
死んだ	-9.63862
顔	-9.63868
▁초	-9.63889
▁박사님	-9.64007
▁그러	-9.64013
▁어쩔	-9.64023
▁외	-9.64081
▁こちら	-9.64106
人間	-9.64205
L	-9.6429
경	-9.64356
▁사용	-9.64372
커	-9.64401
▁했다	-9.64423
あった	-9.64519
足	-9.6456
▁해결	-9.64608
報告	-9.64644
ナー	-9.64661
▁자넨	-9.6469
くらい	-9.64738
放	-9.64761
▁보자	-9.6479
으니까	-9.64829
▁얘기를	-9.64904
ちょっと	-9.65023
▁얘기해	-9.65041
▁그들의	-9.65114
たくない	-9.65121
니까요	-9.65129
るわ	-9.65192
▁토	-9.65194
불	-9.65197
쯤	-9.65221
렸	-9.65225
▁당신도	-9.65228
▁월터	-9.65244
▁君を	-9.65313
▁他に	-9.65364
▁팀	-9.65416
▁그리	-9.65472
心配	-9.65491
시켜	-9.65548
쳐	-9.65721
달러	-9.65757
절	-9.65774
▁あんたは	-9.65782
력	-9.65816
▁금방	-9.6582
▁연	-9.65857
▁놈들	-9.65859
ものだ	-9.65933
▁노력	-9.65944
行って	-9.65947
▁바보	-9.65968
警察	-9.65993
血	-9.66001
자고	-9.66002
▁R	-9.6601
▁아버지가	-9.66032
好き	-9.66063
▁私たち	-9.66085
▁믿을	-9.6614
流	-9.66189
夢	-9.66249
▁실수	-9.66344
▁サ	-9.66371
▁別の	-9.66464
しかない	-9.66516
있어	-9.66522
▁먹	-9.66524
▁D	-9.66603
場	-9.66662
のだ	-9.66679
▁없죠	-9.66702
▁いつ	-9.66842
▁레	-9.66881
人に	-9.66899
▁行け	-9.66926
▁하루	-9.67026
助け	-9.67051
▁우	-9.67198
っている	-9.67216
▁왕	-9.67229
▁정보	-9.67256
들과	-9.67304
▁알려	-9.67382
▁뿐이야	-9.67392
的に	-9.67421
ヤ	-9.67426
▁どうした	-9.67467
▁추	-9.67509
母	-9.67511
ロン	-9.6756
の中で	-9.67594
▁독	-9.6766
▁체포	-9.67668
役	-9.67764
들의	-9.67785
▁건가요	-9.67847
不	-9.67859
B	-9.6788
▁법	-9.67882
店	-9.67923
主	-9.67999
頭	-9.68014
▁봤	-9.68045
入	-9.68051
▁최고	-9.6806
자가	-9.68099
すべて	-9.68161
頃	-9.68208
ケ	-9.68269
必要	-9.68308
を持って	-9.68312
▁あれ	-9.68349
だけで	-9.6837
▁써	-9.68375
▁바라	-9.68436
同じ	-9.68441
범	-9.68445
お前	-9.68504
었다	-9.68508
もある	-9.68628
▁앉아	-9.68643
기가	-9.68675
출	-9.6885
거죠	-9.68886
▁警察	-9.68908
▁그것을	-9.68926
▁같다	-9.68952
▁지내	-9.68977
▁마약	-9.69019
▁ド	-9.69186
▁쓸	-9.69206
주세요	-9.69231
렌	-9.69301
▁없었어	-9.6931
みたいな	-9.69365
▁글쎄	-9.69368
げ	-9.69405
ことに	-9.69409
▁알잖아	-9.69434
▁타고	-9.69459
セ	-9.69534
空	-9.69577
国	-9.6959
▁自分で	-9.69673
집	-9.6974
▁아저씨	-9.69776
の事	-9.69845
▁채	-9.69895
先生	-9.70006
▁당신과	-9.70017
더니	-9.70072
▁행동	-9.7008
급	-9.70109
▁어디에	-9.70134
そ	-9.70142
▁못해	-9.70152
▁보이	-9.70256
▁<	-9.7031
께서	-9.70402
▁처	-9.70438
▁치료	-9.70491
▁매일	-9.70498
때	-9.70595
▁나의	-9.70684
ないで	-9.70699
ちゃん	-9.70729
▁샘	-9.70735
▁미안	-9.70843
▁뉴욕	-9.70882
食	-9.70906
もっと	-9.7095
▁책	-9.70954
ガン	-9.70958
직	-9.71067
▁심	-9.71082
▁상황이	-9.71104
▁성공	-9.71134
てくれ	-9.71144
妻	-9.71255
▁몸	-9.71313
>	-9.71343
려면	-9.71366
하러	-9.71369
▁허	-9.7138
▁숨	-9.71401
良かった	-9.71403
船	-9.71444
学	-9.71472
에겐	-9.71501
매	-9.71514
▁줘요	-9.7153
代	-9.71549
▁둘이	-9.71618
全員	-9.71658
ar	-9.71669
▁말하지	-9.71701
에도	-9.7175
래요	-9.71807
▁ただの	-9.71811
ぐ	-9.71853
판	-9.71869
하네	-9.72024
▁최고의	-9.72028
は無い	-9.72052
▁그것은	-9.72054
▁데려가	-9.72059
▁의심	-9.72096
▁땐	-9.72109
▁明日	-9.72184
했다고	-9.72185
▁당연히	-9.72297
▁달러	-9.72299
배	-9.723
聞いた	-9.72394
▁먹어	-9.72429
▁me	-9.72446
刑事	-9.72502
▁테니까	-9.72578
▁존재	-9.72677
기도	-9.72721
▁말한	-9.72732
しまった	-9.72787
薬	-9.72812
▁앞으로	-9.72816
▁건물	-9.72878
이었어요	-9.72934
▁게임	-9.72956
▁너를	-9.7296
ソ	-9.72991
▁뭐죠	-9.72994
▁우리에게	-9.73039
▁남자가	-9.73062
▁베	-9.73091
▁11	-9.73172
はどこだ	-9.73179
▁없다고	-9.73204
한다고	-9.73208
である	-9.73239
▁닉	-9.73252
▁당	-9.73349
マー	-9.73402
▁そうか	-9.73419
▁보니	-9.73512
息子	-9.73541
er	-9.73566
▁생각을	-9.73583
▁やめろ	-9.73585
츠	-9.73589
無	-9.73591
▁있어야	-9.73625
▁말씀	-9.73648
るか	-9.73656
友人	-9.73682
▁세계	-9.73694
引き	-9.73804
▁꿈	-9.73912
人で	-9.73929
▁すみません	-9.74035
世界	-9.74039
んだろう	-9.74055
人生	-9.74061
室	-9.74064
▁B	-9.74067
▁말이에요	-9.74126
▁길을	-9.74129
▁多分	-9.74136
시죠	-9.74149
▁했잖아	-9.74174
▁金	-9.7421
▁단지	-9.74243
さえ	-9.74288
大丈夫	-9.7439
렴	-9.74451
いつも	-9.74459
색	-9.74487
▁彼女に	-9.74622
つく	-9.74666
名前	-9.74696
▁빼	-9.74725
▁가게	-9.74754
▁엄청	-9.74875
を殺す	-9.74968
させ	-9.74982
▁옷	-9.75057
20	-9.75075
▁솔직히	-9.75092
▁같	-9.75147
▁죽었어	-9.75154
俺	-9.75205
▁일에	-9.75249
혀	-9.75338
しい	-9.7534
려는	-9.7542
早く	-9.75452
の中に	-9.75469
▁천	-9.75488
ほしい	-9.7566
のことを	-9.75671
▁水	-9.75778
があります	-9.75842
銃	-9.75873
▁全員	-9.75919
▁어쨌든	-9.75959
▁형사님	-9.75977
▁나서	-9.76003
友達	-9.76057
書	-9.76183
ながら	-9.76244
からな	-9.76255
▁당신에게	-9.76277
くれる	-9.76377
거리	-9.76402
▁어머니	-9.76404
았	-9.7642
▁컴퓨터	-9.76453
元	-9.7646
▁私には	-9.76469
▁聞いて	-9.76472
▁명이	-9.76529
▁보세요	-9.76544
はある	-9.76545
만큼	-9.76605
▁귀	-9.76735
▁とにかく	-9.76747
のような	-9.7677
▁자신을	-9.76779
올	-9.76787
強い	-9.76854
話す	-9.76857
やれ	-9.77009
▁어때요	-9.7704
겁니다	-9.7706
線	-9.77088
▁박사	-9.77136
仕事を	-9.7728
▁素晴らしい	-9.77344
서요	-9.77362
状況	-9.77455
망	-9.77555
들에게	-9.77574
音	-9.7758
▁원래	-9.77636
たんだ	-9.77683
▁100	-9.77708
▁오늘은	-9.77717
▁정확히	-9.77843
▁誰	-9.77881
なし	-9.77925
▁아까	-9.77974
ど	-9.78047
▁않았다	-9.78067
▁없잖아	-9.78073
▁관심	-9.78075
▁自分	-9.78108
▁대화	-9.78109
▁파티	-9.7816
カー	-9.78202
▁確かに	-9.78221
▁커피	-9.78231
▁기분이	-9.78262
父	-9.78301
どんな	-9.78419
▁범죄	-9.78422
▁사고	-9.78434
犬	-9.78477
同	-9.78512
▁때가	-9.7859
法	-9.78631
▁곳에	-9.78715
i	-9.78723
▁추적	-9.78727
攻撃	-9.78737
悪	-9.78774
▁大丈夫だ	-9.7881
▁누구야	-9.78839
こそ	-9.78843
▁どこに	-9.78881
l	-9.78892
▁학교	-9.78907
リア	-9.78927
▁곳이	-9.78928
▁子供	-9.78985
g	-9.79026
行動	-9.79065
んだけど	-9.79085
▁있었던	-9.79188
▁되고	-9.79231
やつ	-9.79234
合	-9.79238
よかった	-9.7926
▁여길	-9.79277
▁말이죠	-9.79303
▁그대로	-9.79385
他の	-9.79392
は何	-9.79402
▁죽여	-9.79403
するな	-9.79455
적이	-9.79493
▁빌어먹을	-9.79501
事だ	-9.79512
▁은행	-9.79526
▁어쩌면	-9.79539
服	-9.79548
得	-9.79554
준	-9.79585
はどう	-9.79704
▁괜찮	-9.79745
ぶ	-9.7982
▁デ	-9.79827
はどこ	-9.7983
처	-9.79832
▁않았	-9.79853
▁아니죠	-9.79943
野郎	-9.79989
▁지원	-9.80002
そんな	-9.80024
くれた	-9.80032
だと思う	-9.8004
▁애들	-9.80068
▁我々が	-9.80113
▁좋아하는	-9.80118
人だ	-9.80198
王	-9.80286
겠네	-9.80464
▁아침에	-9.80497
▁접근	-9.80515
▁탈출	-9.80541
▁죄송합니다	-9.8055
류	-9.80557
新しい	-9.80573
▁분명	-9.80613
▁俺を	-9.80642
▁여전히	-9.80667
内	-9.80676
やってる	-9.80681
였죠	-9.80722
たち	-9.80745
してきた	-9.80777
▁장난	-9.80841
と言う	-9.80842
런	-9.80844
▁이상한	-9.80847
▁50	-9.80867
▁いえ	-9.80893
▁뭐든	-9.80896
台	-9.80913
のため	-9.80971
▁さて	-9.80979
▁달라	-9.81005
플	-9.81055
キー	-9.8107
▁사랑해	-9.81136
되는	-9.81137
▁필요해요	-9.81155
命	-9.81175
なり	-9.81246
▁검사	-9.81334
システム	-9.81396
ッド	-9.81423
君が	-9.8144
▁it	-9.81542
▁영화	-9.81568
N	-9.81624
하는데	-9.81628
볼	-9.8164
▁못할	-9.81671
▁갑자기	-9.81715
▁매우	-9.81744
▁장	-9.81757
▁괜찮을	-9.81763
▁彼ら	-9.81811
小	-9.81841
▁친	-9.81863
からの	-9.81888
▁있네	-9.81922
▁기록	-9.81936
分かった	-9.81951
▁何の	-9.8199
▁아니고	-9.82075
パ	-9.82111
光	-9.82127
▁파괴	-9.82148
▁짐	-9.82163
▁人	-9.82186
存在	-9.82206
あり	-9.8226
▁크	-9.82266
12	-9.82364
▁彼らの	-9.82409
しなかった	-9.82501
島	-9.82507
R	-9.82531
罪	-9.82656
にする	-9.82687
▁괜찮은	-9.82755
▁You	-9.82766
▁彼らが	-9.82784
▁돈이	-9.82855
▁않았어요	-9.82857
▁회사	-9.82878
年間	-9.82901
더라	-9.82926
▁있었는데	-9.82985
みたいだ	-9.8299
▁명령	-9.83013
行き	-9.8303
為に	-9.83075
▁감	-9.8309
思い	-9.83177
身	-9.83191
▁집으로	-9.83209
ってこと	-9.8321
いません	-9.83239
▁놈을	-9.83298
はしない	-9.83315
종	-9.83322
▁차를	-9.8336
튼	-9.83375
작	-9.83398
▁없었어요	-9.83442
▁방법을	-9.83453
or	-9.83467
셨	-9.83472
▁T	-9.83474
▁중에	-9.83509
▁손을	-9.83566
먼	-9.83669
▁私達	-9.8367
교	-9.83704
▁기대	-9.83746
つもり	-9.8379
락	-9.838
백	-9.83825
cH	-9.83845
▁悪い	-9.83849
人物	-9.83867
▁조심해	-9.83905
▁멀리	-9.83909
なのよ	-9.83936
▁そこで	-9.83948
명이	-9.83979
▁현재	-9.83981
이라는	-9.84017
病	-9.84042
▁俺に	-9.84089
兵	-9.84098
てた	-9.84103
▁밤에	-9.84152
ついて	-9.84171
状態	-9.84271
▁앞	-9.84282
シュ	-9.84285
기로	-9.84306
▁깨	-9.84352
軍	-9.84384
▁말이지	-9.84423
情報	-9.84447
意味	-9.84647
▁今の	-9.84651
じゃなかった	-9.84666
俺は	-9.84684
▁나에게	-9.84687
▁/	-9.84709
わかった	-9.8475
ワ	-9.84836
▁이럴	-9.8487
正しい	-9.84892
▁보지	-9.84897
▁ジャック	-9.84916
▁비행기	-9.84953
▁友達	-9.84982
▁우리도	-9.84997
出した	-9.85122
せる	-9.85175
▁벤	-9.8519
30	-9.85191
ffff	-9.85198
▁마치	-9.85214
하신	-9.85235
▁부르	-9.85275
ランド	-9.85327
▁의미	-9.85427
D	-9.85482
かどうか	-9.85513
▁나오	-9.85524
▁동생	-9.85544
▁그것	-9.85544
겠소	-9.85561
っと	-9.8558
같은	-9.8565
▁아내	-9.85731
によって	-9.85734
▁아가씨	-9.85738
술	-9.85745
ことも	-9.85755
こう	-9.85787
▁分からない	-9.85815
▁설명	-9.85818
▁감사	-9.85852
彼が	-9.85853
器	-9.85859
残	-9.85869
化	-9.85874
야죠	-9.8589
▁맞는	-9.85906
셨어요	-9.85942
▁我々	-9.85959
▁상태	-9.85996
▁次の	-9.86107
었죠	-9.86136
▁질문	-9.86171
会った	-9.86237
▁도시	-9.86249
なぜ	-9.86251
あなたを	-9.86279
▁스스로	-9.86419
▁今夜	-9.86453
▁쪽	-9.86472
하도록	-9.86479
以上	-9.86512
かね	-9.86594
▁않는다	-9.86647
▁눈을	-9.86711
하라고	-9.86733
調べ	-9.86756
▁수는	-9.86794
れた	-9.86827
するわ	-9.86843
이오	-9.86887
ニュース	-9.86887
▁되어	-9.86891
등	-9.86906
危険	-9.86932
もいい	-9.87058
▁작동	-9.87129
娘	-9.87167
▁今まで	-9.87184
▁모두가	-9.87188
話を	-9.87254
▁왔	-9.87259
▁생각하는	-9.87335
るのは	-9.87392
먹	-9.87399
▁평생	-9.87404
▁게다가	-9.87422
▁알겠습니다	-9.87444
▁있지만	-9.87459
▁병	-9.87467
▁질	-9.87547
するの	-9.87613
出して	-9.87633
▁여기가	-9.87641
▁カ	-9.8773
~	-9.87813
▁척	-9.87864
라고요	-9.87904
▁18	-9.8793
자를	-9.87942
ーン	-9.87993
▁있잖아요	-9.88026
▁우주	-9.88404
▁상대	-9.88487
部	-9.88497
▁아마도	-9.88566
▁힘을	-9.88585
▁世界	-9.88599
と思って	-9.88618
予定	-9.88637
▁大統領	-9.88794
声	-9.88852
彼女の	-9.88862
の話	-9.88935
머	-9.8896
ハ	-9.88997
▁테	-9.89092
▁인사	-9.89098
▁기다리	-9.8923
▁경우	-9.89231
▁조용히	-9.89235
▁of	-9.89268
るな	-9.89335
억	-9.89349
▁어딨어	-9.89474
来い	-9.89511
山	-9.89532
▁들었어	-9.89613
▁알았는데	-9.89627
던데	-9.89629
개월	-9.89719
▁クソ	-9.89723
ますか	-9.89758
▁빌	-9.89784
誰も	-9.89812
▁오빠	-9.89876
方がいい	-9.89882
지를	-9.89908
分からない	-9.89938
び	-9.90102
▁있소	-9.9012
▁왔다	-9.90134
▁정보를	-9.90166
してくれる	-9.90226
州	-9.90284
민	-9.90342
▁それとも	-9.90377
▁교	-9.90433
령	-9.90442
애	-9.9045
▁따	-9.90455
▁상관	-9.90478
낼	-9.90481
▁순간	-9.90513
▁그날	-9.90546
二人	-9.90561
ショー	-9.90572
▁먹고	-9.90682
▁키	-9.90683
員	-9.90705
▁もう一度	-9.90728
お前の	-9.90734
を取り	-9.9082
形	-9.90902
組織	-9.9095
▁全	-9.90954
이면	-9.90958
▁지역	-9.90966
▁남은	-9.90977
▁윌	-9.90992
▁했던	-9.91005
▁なに	-9.91016
僕	-9.91016
装置	-9.91028
▁목숨을	-9.91053
▁F	-9.91057
わけ	-9.91134
석	-9.9118
▁助けて	-9.91242
▁카메라	-9.91287
すぎる	-9.91336
れない	-9.91341
じゃないわ	-9.91369
ると	-9.91389
창	-9.9142
思う	-9.91485
彼女は	-9.91519
▁프랭크	-9.91529
▁知らない	-9.91545
ありがとう	-9.91575
▁계획이	-9.91578
▁마이크	-9.91675
였다	-9.91684
場合	-9.91712
強	-9.9173
팀	-9.91751
▁그렇죠	-9.91761
▁보호	-9.91774
퍼	-9.91935
考える	-9.91938
▁문을	-9.91972
▁언니	-9.92038
I	-9.92056
付け	-9.92121
▁그만해	-9.92121
▁건지	-9.92155
るぞ	-9.9225
▁여러	-9.9229
▁자신의	-9.92396
15	-9.92401
▁알렉스	-9.92447
▁가져가	-9.92451
兄弟	-9.92483
▁L	-9.92514
観	-9.92547
▁분명히	-9.92573
君に	-9.92614
▁끝내	-9.92639
▁イ	-9.92678
なんです	-9.92694
▁あら	-9.9271
居る	-9.92879
이네	-9.92883
見える	-9.92906
殺す	-9.92955
々	-9.92968
리는	-9.93038
E	-9.9304
▁まるで	-9.93064
▁폭발	-9.93075
▁수사	-9.93135
ガー	-9.93173
역	-9.93196
▁사과	-9.93215
ベル	-9.93283
をする	-9.93401
설	-9.93411
지고	-9.93477
▁죽었	-9.93579
殺	-9.93659
位	-9.93684
ベ	-9.93686
▁안전	-9.93753
限り	-9.93812
▁꺼내	-9.93886
▁있었죠	-9.93969
입	-9.93977
言え	-9.93985
アー	-9.93999
▁ピーター	-9.94002
줘요	-9.94011
▁아니요	-9.94045
▁찾아야	-9.94075
▁まず	-9.94089
▁銃	-9.9411
▁わからない	-9.94154
▁実は	-9.94169
キス	-9.9419
▁만난	-9.94194
▁どうぞ	-9.94194
▁こんにちは	-9.94195
▁호텔	-9.94203
▁노래	-9.94242
しても	-9.94255
었지	-9.94262
ぬ	-9.94274
▁죽는	-9.94283
▁연구	-9.94331
▁얼굴	-9.94352
언	-9.94358
▁도와줘	-9.94361
の事を	-9.94475
셔	-9.94526
警官	-9.94542
▁한다고	-9.94568
50	-9.94569
▁생각은	-9.94578
許可	-9.94597
語	-9.94621
▁마이클	-9.94666
されている	-9.94669
▁待て	-9.94722
▁俺も	-9.94734
質問	-9.94751
ぎ	-9.94788
受け	-9.9479
▁あんたの	-9.94819
▁영	-9.94839
▁들고	-9.94849
▁많아	-9.94875
局	-9.94889
야겠어	-9.95057
▁되죠	-9.9509
▁환자	-9.95097
▁자식	-9.95115
感	-9.95148
▁납치	-9.95223
▁운전	-9.95281
담	-9.95284
족	-9.9533
▁기사	-9.95412
▁너와	-9.95429
이잖아	-9.95437
림	-9.95437
층	-9.95471
▁나온	-9.95518
▁보낸	-9.95551
ありません	-9.95553
▁드	-9.95581
▁is	-9.95584
家に	-9.95621
▁돌려	-9.9564
▁니	-9.9565
楽	-9.95674
俺が	-9.95678
▁악	-9.95703
년간	-9.95703
▁진정해	-9.95714
▁확인해	-9.95742
クソ	-9.95747
▁家	-9.95756
됐어	-9.95775
解決	-9.95793
に行って	-9.95878
하지만	-9.95888
M	-9.95981
탄	-9.96018
업	-9.9602
an	-9.96079
▁경고	-9.96223
▁떨어져	-9.96237
▁친구들	-9.96248
품	-9.9626
考えて	-9.963
▁요청	-9.96303
in	-9.96341
▁빈	-9.96378
▁통화	-9.96379
▁형사	-9.96414
▁ラ	-9.9647
にとって	-9.96482
ないの	-9.96515
▁마음	-9.96548
있는	-9.96573
はもう	-9.96614
▁루	-9.9664
▁알겠어	-9.96645
▁여행	-9.96647
▁뭐지	-9.96655
친	-9.96704
答え	-9.96735
のです	-9.96746
隊	-9.96749
▁最後の	-9.96758
ここにいる	-9.9682
持って	-9.96824
んでしょ	-9.96895
行け	-9.969
P	-9.97062
▁쏴	-9.97094
▁이번엔	-9.97107
戻	-9.97127
글	-9.97163
見る	-9.97238
物を	-9.97263
作戦	-9.97289
言ってる	-9.97312
ライ	-9.97353
▁in	-9.97387
出し	-9.97425
▁겁니까	-9.97448
これは	-9.97452
▁そうだな	-9.97497
準備	-9.97519
としても	-9.97667
영	-9.97686
▁훈련	-9.97712
되어	-9.97722
▁손에	-9.97772
犯罪	-9.97772
▁どこ	-9.97813
聞く	-9.97832
リング	-9.97835
▁녀석	-9.9792
時は	-9.9797
▁셜록	-9.97978
▁핀치	-9.97991
ではなく	-9.98002
결	-9.98099
각	-9.98181
彼に	-9.98222
▁메	-9.98224
▁ハ	-9.98237
▁今すぐ	-9.9825
敵	-9.98287
あなたに	-9.98306
ものを	-9.9832
わからない	-9.98322
曲	-9.9836
▁쓴	-9.98375
チーム	-9.98459
▁있	-9.9846
겠다고	-9.98508
▁마지막으로	-9.9853
骨	-9.98653
証拠	-9.9866
▁정부	-9.98673
▁그래야	-9.9873
▁すまない	-9.98764
▁세상을	-9.98808
▁最近	-9.98819
手を	-9.98831
▁뒤로	-9.98953
殺した	-9.98974
▁레이	-9.99039
졌	-9.99042
いなかった	-9.99043
링	-9.99047
年前	-9.99048
스가	-9.99076
장이	-9.99093
▁철	-9.99099
バカ	-9.99133
▁놔	-9.99133
▁기계	-9.99137
ったら	-9.99145
▁200	-9.992
乗	-9.99202
目的	-9.99212
▁あいつ	-9.99234
가요	-9.99235
気が	-9.99257
▁신고	-9.99267
▁주고	-9.9931
▁작전	-9.9932
▁ダメ	-9.99412
すぐ	-9.99455
星	-9.99507
すぐに	-9.99511
▁들려	-9.99533
▁충분히	-9.99539
と思ってた	-9.99543
つけ	-9.99591
▁정말로	-9.996
▁ちゃんと	-9.99604
時間を	-9.99606
はまだ	-9.99609
▁헤	-9.99614
▁あなたも	-9.99667
風	-9.99681
ール	-9.9971
▁맘에	-9.99742
▁탄	-9.99745
側	-9.99746
▁私達は	-9.99746
▁이해가	-9.99778
▁좋지	-9.99783
殺し	-9.99811
▁자네는	-9.99826
▁이유	-9.99835
▁화	-9.99857
▁힘들	-9.99871
▁암	-9.99941
▁모르	-9.99954
世	-9.99959
마다	-9.9998
▁간다	-9.99993
▁그렇	-10.0001
▁가족이	-10.0001
やろう	-10.0003
▁대통령	-10.0003
냐고	-10.0004
が無い	-10.0004
席	-10.0007
経験	-10.0007
見つけた	-10.0011
よりも	-10.0011
열	-10.0012
▁말아요	-10.0012
▁40	-10.0015
▁뭔	-10.0017
君を	-10.0022
歌	-10.0023
▁패	-10.0029
べ	-10.003
技術	-10.003
쉬	-10.0031
▁気	-10.0031
▁위에	-10.0033
▁それと	-10.0035
半	-10.0035
▁적어도	-10.0042
続ける	-10.0047
▁그에게	-10.0049
▁가까이	-10.0049
必要がある	-10.0055
▁났	-10.0057
ダメ	-10.007
ことがある	-10.0071
▁위험한	-10.0075
하면서	-10.0078
捜査	-10.0078
▁CIA	-10.0079
週間	-10.008
▁行って	-10.0085
のですか	-10.0086
でね	-10.0097
出て	-10.01
▁아기	-10.01
▁실험	-10.01
▁오는	-10.0102
자는	-10.0106
味	-10.0109
▁나무	-10.0113
▁死んだ	-10.0125
連絡	-10.0126
▁여자를	-10.0128
▁도대체	-10.0129
었	-10.0129
用意	-10.0134
하진	-10.0144
何が	-10.0146
▁찾았어	-10.0152
記録	-10.0156
べきだ	-10.0157
▁연결	-10.0158
力を	-10.0159
▁끊	-10.0161
高い	-10.0162
死に	-10.0162
穴	-10.0163
▁열쇠	-10.0164
▁行くぞ	-10.0165
すべき	-10.0169
▁받고	-10.017
▁전화를	-10.0172
帰る	-10.0172
サン	-10.0173
▁잠깐만요	-10.0175
▁끝	-10.0176
k	-10.0185
하려	-10.0189
言	-10.0189
▁받았	-10.019
を見つける	-10.0191
▁밥	-10.0193
▁같네요	-10.02
▁手を	-10.0201
▁파트너	-10.0201
▁わかってる	-10.0202
▁名前は	-10.0203
▁どうも	-10.0203
るのか	-10.0209
素晴らしい	-10.0209
줄게	-10.0209
たの	-10.0212
있	-10.0215
▁뭐하는	-10.0216
からね	-10.022
しないで	-10.0221
いや	-10.0224
とても	-10.0229
▁알아야	-10.0231
箱	-10.0232
▁もう少し	-10.0235
▁받을	-10.0235
理	-10.0238
安全	-10.0244
▁기다리고	-10.025
手に	-10.025
▁그들	-10.025
▁나갈	-10.0252
に行った	-10.0254
を持ってる	-10.0259
あります	-10.0259
▁ここから	-10.0266
解	-10.0267
▁됩니다	-10.0272
▁마리	-10.0281
父親	-10.0283
火	-10.0284
▁발견	-10.0286
▁관한	-10.0287
殺される	-10.0289
▁쉬	-10.0291
▁앞에	-10.0293
シャ	-10.0297
▁サム	-10.03
と思ってる	-10.0305
生活	-10.0311
調査	-10.0312
すること	-10.0315
▁않다	-10.0316
野	-10.0322
をした	-10.0323
▁삼	-10.0324
▁싸	-10.0324
▁이봐요	-10.0327
▁ニック	-10.0327
話して	-10.0328
▁망	-10.0333
▁전해	-10.0333
▁상황	-10.0338
▁자신	-10.0339
ではありません	-10.034
▁썼	-10.034
▁昨夜	-10.0348
▁서둘러	-10.0349
▁배리	-10.0351
男が	-10.0358
言い	-10.0365
▁かなり	-10.0366
▁퀸	-10.0369
▁않	-10.037
▁너랑	-10.0375
られ	-10.0376
▁마음에	-10.0376
▁머	-10.0379
독	-10.0388
マイル	-10.0388
▁있을까	-10.0389
▁バカ	-10.039
▁역	-10.039
맨	-10.0398
태	-10.04
間に	-10.0404
切り	-10.0406
変	-10.0407
▁군	-10.0409
▁걸어	-10.0411
▁뛰어	-10.0412
なのに	-10.0414
彼女を	-10.0416
▁주는	-10.0417
万ドル	-10.0419
▁증거	-10.042
▁밀	-10.0426
▁俺達は	-10.0428
하시	-10.0431
하자	-10.0433
ていた	-10.0436
施設	-10.0438
u	-10.0438
▁도울	-10.0441
▁E	-10.0448
▁何故	-10.0449
▁車	-10.045
꺼야	-10.0452
▁바꿔	-10.0454
됐	-10.0456
▁죽이	-10.046
コン	-10.0461
▁목	-10.0462
O	-10.0468
복	-10.0469
検査	-10.0471
があって	-10.0471
▁조직	-10.0477
入り	-10.0477
▁구역	-10.0478
▁잠시	-10.0479
▁싶	-10.0481
▁가져와	-10.0481
動	-10.0483
僕の	-10.0484
▁벨	-10.0487
気分	-10.0488
▁집을	-10.0488
言ってた	-10.0489
해도	-10.0497
▁奴らは	-10.0498
大きな	-10.0504
官	-10.0511
▁삶	-10.0511
聞け	-10.0514
ブラ	-10.0517
▁24	-10.0519
▁그랬어	-10.0521
▁何だ	-10.0524
客	-10.0528
髪	-10.0531
込む	-10.0535
パー	-10.0535
説明	-10.0536
▁息子	-10.054
▁역시	-10.0542
▁요즘	-10.0544
ざ	-10.0547
旅	-10.0549
어서	-10.0549
待って	-10.055
▁티	-10.0552
最後の	-10.0552
▁몰라도	-10.0554
▁몰랐	-10.0554
▁만났	-10.0558
▁생겼	-10.0558
量	-10.0558
との	-10.0558
▁버려	-10.0562
ママ	-10.0567
▁엄마는	-10.0568
▁멍청한	-10.0571
もらう	-10.0574
これを	-10.0576
기에	-10.0579
추	-10.0582
責任	-10.0593
▁자리	-10.0595
ヴィ	-10.0598
ないよ	-10.0603
투	-10.0606
確認	-10.0606
▁살고	-10.0609
▁妻	-10.0613
いるの	-10.0616
朝	-10.0619
▁こう	-10.062
ぼ	-10.0622
▁レ	-10.0623
▁H	-10.0623
取引	-10.0626
ッシュ	-10.0627
▁君と	-10.0627
情報を	-10.0629
▁알아서	-10.0633
▁관계	-10.0633
▁心配	-10.0639
▁소리야	-10.0641
を知ってる	-10.0644
▁있었	-10.0645
▁and	-10.0648
んだぞ	-10.065
よな	-10.0652
▁다리	-10.0652
消	-10.0656
▁사랑하는	-10.0658
があれば	-10.066
がいい	-10.0662
秒	-10.0663
来ない	-10.0663
▁분이	-10.0665
持ってる	-10.0667
▁사업	-10.0668
▁돌아	-10.0668
▁마라	-10.0686
▁행크	-10.0689
▁대부분	-10.0692
に来た	-10.0693
正	-10.0694
▁기회를	-10.0699
▁콜	-10.07
寝	-10.07
▁될까요	-10.0701
▁こっち	-10.0703
▁해봐	-10.0705
▁영원히	-10.0706
いった	-10.0712
▁떠	-10.0712
▁변	-10.0717
ll	-10.0717
▁よかった	-10.0719
を見る	-10.072
夫	-10.0723
시킬	-10.0726
▁第	-10.0729
▁すごく	-10.073
하던	-10.0732
▁좋	-10.0735
▁자기가	-10.0736
블	-10.0749
分かってる	-10.0752
▁オレ	-10.0752
▁大丈夫か	-10.0753
▁하는지	-10.0755
サー	-10.0756
▁끔찍한	-10.0756
▁神	-10.0759
高	-10.0762
ジー	-10.0767
▁그것도	-10.0768
戦争	-10.077
▁これから	-10.0771
転	-10.0771
▁커	-10.0773
▁자살	-10.0774
▁피해자	-10.0776
してるの	-10.0778
▁どうする	-10.0783
▁어린	-10.0784
▁넣어	-10.079
▁음악	-10.0791
록	-10.0794
▁이동	-10.0795
칠	-10.0797
そうです	-10.0801
行かない	-10.0801
▁제시	-10.0804
聞こえる	-10.0806
監視	-10.0806
▁하자	-10.081
▁된다	-10.0814
▁ごめん	-10.0815
른	-10.0818
べき	-10.0822
▁하려고	-10.0823
▁상상	-10.0825
ことはない	-10.0829
▁助け	-10.083
▁거라	-10.083
▁힘든	-10.0832
理由は	-10.0834
コード	-10.0838
▁믿지	-10.0842
였지	-10.0845
답니다	-10.0849
기는	-10.085
립	-10.085
걸요	-10.0851
했지만	-10.0867
▁ハイ	-10.0868
▁지금까지	-10.0868
ジョン	-10.0872
▁알죠	-10.0873
▁전투	-10.0876
▁나이	-10.0876
▁フランク	-10.0883
했네	-10.0888
▁取り	-10.089
指	-10.089
▁만한	-10.089
かかる	-10.0891
▁맹세	-10.0893
担当	-10.0894
▁얘길	-10.0895
목	-10.09
好	-10.09
▁들었어요	-10.0903
結果	-10.0904
▁있었지	-10.0912
하여	-10.0913
▁차에	-10.0914
했잖아	-10.0916
▁リ	-10.0917
ピ	-10.0919
なって	-10.092
▁대기	-10.0921
▁거기에	-10.0922
▁기억나	-10.0923
訳	-10.0926
▁먹을	-10.0928
되지	-10.0936
こんな	-10.0938
▁ダメだ	-10.094
保護	-10.094
▁변호사	-10.094
切れ	-10.0942
▁지켜	-10.0943
▁出	-10.0945
▁맞지	-10.095
リスト	-10.0952
▁묻	-10.0952
▁저를	-10.0954
▁끝났어	-10.0955
返	-10.0956
社	-10.0958
▁了解	-10.0959
▁꺼	-10.0962
▁생각해요	-10.0963
▁천천히	-10.0963
▁출발	-10.0964
大統領	-10.0964
인이	-10.0965
이라면	-10.0966
▁물어보	-10.0969
▁P	-10.0972
at	-10.0972
▁통제	-10.0973
▁오고	-10.0977
者が	-10.0979
▁멈춰	-10.0983
장님	-10.0984
ないか	-10.0986
▁보냈	-10.0991
▁들었	-10.0992
▁힘	-10.0996
▁찾았	-10.0997
▁러시아	-10.0998
▁일도	-10.1002
▁관	-10.1002
▁V	-10.101
▁기술	-10.1027
▁そういう	-10.1028
アン	-10.1035
信用	-10.1041
▁돌아오	-10.1043
▁문제는	-10.1047
구만	-10.1047
ことになる	-10.1048
▁밖으로	-10.1051
▁편지	-10.1057
▁줄게	-10.1062
▁필요할	-10.1066
▁왜냐면	-10.1068
▁一体	-10.1069
階	-10.1076
▁すごい	-10.108
▁아닐	-10.1089
が欲しい	-10.1089
会社	-10.1092
▁기회	-10.1094
▁そんなこと	-10.1095
ねぇ	-10.1102
하나	-10.1103
▁나라	-10.1104
로부터	-10.1104
▁년	-10.1106
▁만나서	-10.1109
なくなる	-10.1109
パパ	-10.1109
▁백	-10.1112
▁올려	-10.1112
カン	-10.1116
息	-10.1117
▁昨日	-10.1125
▁속에	-10.1128
重	-10.1129
見えない	-10.113
ヤツ	-10.1131
▁특별한	-10.1134
▁보게	-10.1137
▁お前に	-10.1138
早	-10.114
▁G	-10.1141
▁생각하지	-10.1152
▁재밌	-10.1155
原因	-10.1156
시에	-10.1158
のさ	-10.1161
出る	-10.1161
▁バー	-10.1165
有	-10.1172
戻る	-10.1175
격	-10.118
▁알겠어요	-10.1183
実	-10.1186
動き	-10.1188
事件	-10.1188
▁딴	-10.1189
▁아녜요	-10.1192
▁만드는	-10.1194
▁アメリカ	-10.1196
▁체	-10.1198
▁관련	-10.12
▁방해	-10.1201
▁애가	-10.1204
되고	-10.1204
됐어요	-10.1205
だったら	-10.1205
▁DNA	-10.1209
리가	-10.1215
番号	-10.1217
様に	-10.1219
▁쓰는	-10.1223
するのは	-10.1226
部屋	-10.1227
していない	-10.1228
個	-10.1234
▁다음에	-10.1236
▁책임	-10.1236
탈	-10.1237
海	-10.1238
었는데	-10.1239
▁次は	-10.1241
新	-10.1254
起こ	-10.1256
▁진행	-10.126
ルー	-10.1272
▁이유는	-10.1273
守	-10.1274
▁전쟁	-10.1282
記憶	-10.1288
하겠습니다	-10.1292
モン	-10.1295
入れ	-10.1299
봐요	-10.1299
▁나야	-10.13
全	-10.1302
▁탈	-10.1305
▁말라고	-10.1306
▁뭔가를	-10.1306
▁父親	-10.1307
▁여자는	-10.131
▁찰리	-10.1318
▁모르겠지만	-10.1319
つき	-10.1324
方法	-10.1328
選択	-10.1335
成	-10.1336
▁일하는	-10.1336
▁今朝	-10.1339
▁17	-10.134
映画	-10.1352
능	-10.1356
▁갔	-10.1358
知らせ	-10.1359
目に	-10.136
▁まさか	-10.1362
만한	-10.1362
▁아이를	-10.1364
▁줬	-10.1366
낸	-10.1368
▁be	-10.1369
▁ひどい	-10.1371
니다	-10.1377
▁진실을	-10.1378
違い	-10.1385
話し	-10.1385
▁해리	-10.1386
事に	-10.1388
▁풀	-10.139
かと	-10.139
デン	-10.1399
の間	-10.1399
▁コ	-10.1401
金を	-10.1401
▁新	-10.1403
んだな	-10.1406
▁형제	-10.1407
습니까	-10.1409
ないんだ	-10.141
▁비켜	-10.1412
▁뭔데	-10.1414
押し	-10.1424
僕は	-10.1425
봤	-10.1425
▁훌륭한	-10.1426
と言って	-10.1429
▁父さん	-10.143
▁そうね	-10.143
かけ	-10.1432
中の	-10.1439
反応	-10.1445
▁死	-10.1447
▁보이는	-10.145
▁それだけ	-10.1453
▁누	-10.1455
▁했지만	-10.1458
士	-10.146
▁여보세요	-10.1465
▁以前	-10.1468
があるの	-10.1474
バン	-10.1475
▁その通り	-10.1477
▁금	-10.149
▁트럭	-10.1492
込んで	-10.1495
▁옆에	-10.1495
▁뇌	-10.1496
管理	-10.15
▁생각엔	-10.15
ップ	-10.1501
ビン	-10.1502
b	-10.1506
▁ジョー	-10.1511
F	-10.1513
▁ウォルター	-10.1522
▁失礼	-10.1523
▁용서	-10.1524
どこ	-10.1524
チャンス	-10.153
▁아들이	-10.1532
▁ベン	-10.1534
▁비행	-10.154
少女	-10.1543
▁아프	-10.1543
하잖아	-10.155
만이	-10.1555
▁あんな	-10.1556
들도	-10.1559
▁心	-10.156
さま	-10.1561
▁元気	-10.1561
하시는	-10.1564
える	-10.1567
▁뜻	-10.1576
表	-10.1579
▁있니	-10.1579
気に	-10.158
要	-10.1583
▁낫	-10.1583
逃げ	-10.1585
턴	-10.1587
▁놈은	-10.1588
▁셋	-10.1589
▁언제나	-10.1592
였	-10.1593
奴ら	-10.1596
▁考え	-10.1597
命令	-10.1599
▁리스	-10.16
きて	-10.16
弟	-10.1603
메	-10.1604
▁아니라고	-10.1605
km	-10.1606
▁ク	-10.161
▁大きな	-10.161
▁お前を	-10.1612
者の	-10.1614
▁死ぬ	-10.1614
▁풀어	-10.1615
▁女	-10.1616
▁사건을	-10.1617
▁죽였	-10.1621
▁가끔	-10.1622
▁할지	-10.1625
데요	-10.1625
▁농담	-10.1626
▁自分が	-10.1626
▁도와주	-10.1626
▁허락	-10.163
らん	-10.1636
G	-10.1641
합	-10.1644
▁위협	-10.1644
▁생일	-10.1644
이군	-10.1648
▁俺たち	-10.1649
▁全ての	-10.1651
ってた	-10.1652
al	-10.1652
▁대학	-10.1653
▁どの	-10.1654
▁あなたと	-10.1655
前の	-10.1658
フィ	-10.1658
시오	-10.1661
▁가족을	-10.1666
주지	-10.1672
▁지나	-10.1674
▁嘘	-10.1674
抜け	-10.1675
▁받	-10.1676
馬	-10.1678
▁보이지	-10.1679
▁何でも	-10.1679
▁며칠	-10.1681
▁자유	-10.1682
▁협박	-10.1685
乗り	-10.1687
止め	-10.1688
ザー	-10.1689
후	-10.1689
p	-10.1694
▁도와줄	-10.1695
▁표	-10.1696
▁前	-10.17
▁そんなに	-10.1702
考えた	-10.1707
▁꽉	-10.1709
▁지구	-10.171
一つ	-10.1715
▁どうしたの	-10.1716
▁全く	-10.1717
▁마음을	-10.172
▁《	-10.1723
▁떠날	-10.1723
別の	-10.1723
▁이곳	-10.1728
▁운이	-10.1729
▁그림	-10.173
라니	-10.1732
▁머리를	-10.1734
▁세상	-10.1735
쳤	-10.1739
하며	-10.1743
後に	-10.1744
の中	-10.1745
▁13	-10.1757
▁쓰레기	-10.1758
》	-10.176
相手	-10.1762
▁앞에서	-10.1763
는데요	-10.1764
年の	-10.1764
▁거고	-10.1766
協力	-10.177
肉	-10.1772
▁통해	-10.1774
▁옛날	-10.1775
▁約束	-10.1776
ジャー	-10.1777
▁バ	-10.1778
▁無	-10.178
▁않습니다	-10.1781
学校	-10.1782
▁과거	-10.1785
▁K	-10.1785
立て	-10.1787
▁사망	-10.1789
テスト	-10.1789
▁주지	-10.1789
はいない	-10.179
▁不	-10.1791
▁보기	-10.1791
▁요구	-10.1796
▁사냥	-10.1798
そこに	-10.1802
▁살려	-10.1802
▁좋다	-10.1805
ゲーム	-10.1805
▁없지만	-10.1808
졌어	-10.1811
▁걸로	-10.1813
K	-10.1814
気持ち	-10.1816
▁얼른	-10.1817
良く	-10.1819
▁갈게	-10.1819
教えて	-10.182
는걸	-10.182
▁誰にも	-10.1821
le	-10.1825
▁その後	-10.1829
逃げた	-10.1834
▁ヘイ	-10.1834
▁너에게	-10.1836
▁f	-10.1838
作った	-10.184
▁쳐	-10.1841
▁人間	-10.1849
を守る	-10.1849
한다면	-10.1851
▁페	-10.1857
ビル	-10.1857
▁すべての	-10.186
晩	-10.186
▁25	-10.1866
▁마시	-10.1868
▁없애	-10.1875
▁あんたが	-10.1875
▁할까	-10.1876
▁없는데	-10.1879
▁괴물	-10.1888
患者	-10.1889
▁どうか	-10.189
케	-10.1896
▁영웅	-10.1897
ずに	-10.1901
청	-10.1911
料理	-10.1912
を使って	-10.1912
マシン	-10.1919
▁初めて	-10.1925
われ	-10.1926
ことができる	-10.193
魂	-10.1931
▁위험	-10.1934
▁집이	-10.1935
られて	-10.1935
▁있으니까	-10.194
結婚	-10.1943
▁번호	-10.1946
강	-10.195
事も	-10.1952
▁一人	-10.1953
▁굴	-10.1955
対	-10.196
弱	-10.196
▁좋겠어	-10.196
▁모른다	-10.1961
▁섬	-10.1965
▁보통	-10.1966
▁제거	-10.1969
▁올리비아	-10.1969
んじゃ	-10.1971
▁생긴	-10.1972
帰り	-10.1974
ペ	-10.1975
▁時間	-10.1975
▁ミ	-10.1977
ること	-10.1977
▁제게	-10.198
なよ	-10.199
을까	-10.1993
▁ここの	-10.1994
秘密	-10.1996
氏	-10.1997
▁벗어나	-10.1997
▁삶을	-10.1999
されました	-10.1999
期	-10.1999
11	-10.2
しましょう	-10.2002
▁俺たちは	-10.2003
始めた	-10.2004
▁急いで	-10.2004
▁저게	-10.2004
犯人	-10.2005
예	-10.201
▁폭탄	-10.2013
▁죽이고	-10.2015
▁알았	-10.2016
▁죽였어	-10.2017
▁그렇다면	-10.202
持ち	-10.2021
막	-10.2023
▁없네	-10.2026
▁that	-10.2027
이었죠	-10.2029
▁식사	-10.2031
▁잡	-10.2036
▁저건	-10.2039
命を	-10.204
▁彼と	-10.204
en	-10.2043
かけて	-10.2048
▁엄청난	-10.2048
自由	-10.205
我々の	-10.2052
▁반대	-10.2054
つか	-10.2055
▁도움	-10.2061
▁私と	-10.2063
▁말해봐	-10.2066
▁아버지는	-10.2068
▁태워	-10.2071
▁後	-10.2074
▁릭	-10.2076
▁元	-10.2078
w	-10.208
틀	-10.2081
▁만큼	-10.2082
病気	-10.2088
――	-10.2089
あんた	-10.2091
強く	-10.2093
発見	-10.2095
▁마을	-10.2099
▁됐	-10.2099
보고	-10.21
▁장소	-10.2101
▁할머니	-10.2107
▁했을	-10.2125
大丈夫だ	-10.2128
할게요	-10.2129
왔	-10.2132
速	-10.2135
▁─	-10.2137
▁달리	-10.214
▁대답	-10.2145
▁디	-10.2149
知	-10.2149
石	-10.2152
▁여기로	-10.2153
▁급	-10.2157
편	-10.216
無かった	-10.2164
스터	-10.2166
▁때문이	-10.2166
言わない	-10.2168
別	-10.2168
母親	-10.2169
▁朝	-10.217
▁数	-10.2171
▁선물	-10.2171
▁14	-10.2172
▁사실을	-10.2176
しまう	-10.2176
脳	-10.2181
行こう	-10.2182
生き	-10.2189
▁상처	-10.219
意	-10.219
▁폴	-10.219
기만	-10.2191
ジュ	-10.2191
▁당신들	-10.2196
▁막을	-10.2201
獣	-10.2202
戦う	-10.2206
▁おまえ	-10.2206
▁길이	-10.2207
民	-10.2207
▁중이	-10.2208
くれないか	-10.2211
▁結婚	-10.2213
▁俺達	-10.2216
フェ	-10.2216
約束	-10.2216
込み	-10.2217
号	-10.2217
▁そりゃ	-10.2223
▁계세요	-10.2223
▁家に	-10.2225
▁봤는데	-10.2226
책	-10.2228
H	-10.2229
置いて	-10.223
と思います	-10.2231
둘	-10.2231
公	-10.2234
▁같지	-10.2236
たかった	-10.2238
▁아니지만	-10.2238
いいか	-10.2238
ミー	-10.224
▁받은	-10.224
▁달려	-10.2244
▁데이트	-10.2247
▁용	-10.2248
▁お父さん	-10.2249
이었다	-10.2256
▁계획을	-10.226
少年	-10.2261
▁오지	-10.2261
▁누굴	-10.2263
▁놀	-10.2265
▁꺼져	-10.2266
事故	-10.2271
のある	-10.2293
背	-10.2295
▁보여주	-10.2298
リス	-10.2303
▁만날	-10.2304
▁남편	-10.2304
▁구해	-10.2306
▁問題	-10.2307
▁판	-10.231
多く	-10.2311
男だ	-10.2314
▁일이에요	-10.2315
▁おそらく	-10.2322
▁찾은	-10.2322
▁なあ	-10.2324
주는	-10.2324
望み	-10.2324
町	-10.2325
男は	-10.2331
今日	-10.2331
武器	-10.2334
にいた	-10.2335
쿠	-10.2335
▁카드	-10.2339
ども	-10.2339
だろうな	-10.2341
▁살해	-10.2343
▁本	-10.2344
▁찾았어요	-10.2346
▁눈에	-10.235
▁오면	-10.2354
って言った	-10.2355
質	-10.2356
▁16	-10.2358
풍	-10.236
▁my	-10.2362
▁娘	-10.2366
▁와요	-10.2369
▁방법	-10.2369
▁여기는	-10.2369
▁本当の	-10.2369
移動	-10.2371
出せ	-10.2371
하려면	-10.2374
▁見た	-10.2374
エル	-10.2376
もし	-10.2376
▁빠져	-10.2377
▁하세요	-10.2378
에서는	-10.2379
▁행성	-10.238
하겠다	-10.2381
▁왜냐하면	-10.2382
本当	-10.2383
▁생	-10.2386
つもりだ	-10.2394
▁임무	-10.2398
▁싫어요	-10.24
▁등	-10.2401
会う	-10.2406
ようです	-10.2408
職	-10.241
▁あの子	-10.241
▁새로	-10.2412
▁덕분에	-10.2415
▁最初の	-10.2415
式	-10.2421
いか	-10.2423
▁君も	-10.2424
▁보여요	-10.2424
トル	-10.2429
道を	-10.243
めて	-10.2432
▁友人	-10.2435
▁물건	-10.2435
▁落ち着け	-10.2437
▁サラ	-10.2446
▁우선	-10.2447
름	-10.245
に戻る	-10.2454
ればいい	-10.2455
▁준비가	-10.2456
▁넘어	-10.2461
성이	-10.2461
等	-10.2461
겠네요	-10.2462
▁분석	-10.2466
聞き	-10.2466
ものは	-10.2467
じゃなくて	-10.2469
▁걸리	-10.2469
▁사장님	-10.247
ファ	-10.2479
でもない	-10.248
証言	-10.2483
当	-10.2485
▁투	-10.2485
にした	-10.249
を失った	-10.249
▁갖다	-10.2494
が必要	-10.2496
お願い	-10.2496
▁さぁ	-10.2502
환	-10.2502
컨	-10.2503
それが	-10.2506
▁뉴스	-10.2511
▁그녀	-10.2512
あって	-10.2514
%	-10.2519
▁복수	-10.2522
の後	-10.2522
▁필요가	-10.2523
▁죽게	-10.2526
人々	-10.2528
▁기억이	-10.2531
ここ	-10.2531
治療	-10.2534
▁여보	-10.2535
▁병원	-10.2535
▁차량	-10.2536
怖い	-10.2538
▁그쪽	-10.254
▁동료	-10.2546
▁테러	-10.2546
行為	-10.2549
▁말하고	-10.255
되었다	-10.255
家の	-10.2551
▁나왔	-10.2553
어야	-10.2554
幸せ	-10.2558
定	-10.2558
▁희생	-10.2558
▁もういい	-10.2562
▁냄새	-10.2564
랜	-10.2567
俺たち	-10.2568
▁없으면	-10.2568
▁동물	-10.2572
짓	-10.2575
▁アー	-10.2581
▁連絡	-10.2589
▁기지	-10.2592
▁여성	-10.2592
▁こいつ	-10.2594
밀	-10.2599
▁가르쳐	-10.2599
能力	-10.2612
성을	-10.2619
▁네게	-10.262
型	-10.2622
指示	-10.2623
してます	-10.2627
▁우리한테	-10.2627
▁シ	-10.2634
▁중이야	-10.2636
最	-10.2637
仲間	-10.2637
▁男	-10.2639
事実	-10.2642
▁夢	-10.2645
ゲ	-10.2646
～	-10.2646
▁전기	-10.2648
▁돌아올	-10.2649
恐れ	-10.2651
▁알았다	-10.2653
者だ	-10.2656
が悪い	-10.2658
兵士	-10.266
しなさい	-10.2663
명의	-10.2671
라구	-10.2671
▁多くの	-10.2675
▁시도	-10.2677
犯	-10.2677
씩	-10.2679
中で	-10.2683
▁수색	-10.2684
みて	-10.2685
プログラム	-10.2688
했다는	-10.2691
▁보낼	-10.2691
が好き	-10.2692
顔を	-10.2692
をして	-10.2695
▁船	-10.2696
▁아빠는	-10.2696
▁배우	-10.2696
▁당신한테	-10.2704
하려는	-10.2705
듯이	-10.2707
▁落ち着いて	-10.2709
▁아니잖아	-10.271
버릴	-10.271
してください	-10.2713
▁음식	-10.2713
▁쫓아	-10.2715
할게	-10.2715
▁だけど	-10.2716
▁살았	-10.2724
腕	-10.2731
とこ	-10.2734
居た	-10.2735
借り	-10.2736
▁웃	-10.274
ようと	-10.274
▁떨	-10.2743
▁下	-10.2744
▁顔	-10.2746
を取って	-10.275
▁처리	-10.275
▁일찍	-10.2751
라니까	-10.2751
レー	-10.2751
시키	-10.2752
▁말하면	-10.2754
▁逃げ	-10.276
▁仲間	-10.2761
▁태	-10.2764
▁フィンチ	-10.2767
首	-10.2769
▁입고	-10.277
▁ベ	-10.2775
▁쉽게	-10.2779
探	-10.2779
▁하게	-10.2786
男性	-10.2789
▁まったく	-10.279
▁통과	-10.2791
▁맥	-10.2793
▁알겠지	-10.2795
▁새끼	-10.2796
▁가능한	-10.2799
はありません	-10.2802
どうやって	-10.2803
▁알지만	-10.2803
▁일이죠	-10.2804
▁母親	-10.2804
取	-10.281
▁예쁜	-10.2813
▁청	-10.2818
▁お前ら	-10.2819
▁必ず	-10.2819
▁들어봐	-10.2824
お前は	-10.2826
악	-10.2828
▁시체	-10.2829
▁프로그램	-10.2833
칸	-10.2833
▁크리스	-10.2836
▁母さん	-10.2838
▁안전한	-10.284
ワン	-10.2845
〜	-10.285
▁이래	-10.2858
んだが	-10.2858
▁어젯밤	-10.2861
거예요	-10.2862
▁夜	-10.2864
▁ロ	-10.2876
▁작업	-10.2876
部分	-10.2878
▁사람도	-10.288
로서	-10.288
▁가져	-10.2882
▁다신	-10.2883
드리	-10.289
時代	-10.2891
▁아들을	-10.2893
▁집중	-10.29
なった	-10.2901
▁아나	-10.2902
▁데려다	-10.2904
▁ちょっと待って	-10.2908
▁사이에	-10.2909
▁갔어	-10.2909
先に	-10.291
ならない	-10.2913
やら	-10.2917
▁それなら	-10.2917
▁これ以上	-10.2919
▁少なくとも	-10.2921
▁곳을	-10.2923
カメラ	-10.2926
妹	-10.2928
件	-10.2931
▁방에	-10.2932
▁TV	-10.2933
込んだ	-10.2933
だし	-10.2935
둔	-10.2937
▁계시	-10.2938
▁대단한	-10.2939
人たち	-10.294
▁버스	-10.294
▁다섯	-10.294
▁아이가	-10.2942
▁부서	-10.2947
飛び	-10.2952
▁모르지만	-10.2953
▁どこか	-10.2955
▁それじゃ	-10.2955
▁愛	-10.2957
続け	-10.2959
▁いいわ	-10.2959
▁사실이	-10.2964
会議	-10.2969
電	-10.2969
何でも	-10.297
근	-10.2972
▁일로	-10.2973
하네요	-10.2976
놓고	-10.2976
▁저리	-10.2977
▁안되	-10.2978
いるんだ	-10.2979
▁스타크	-10.2982
何だ	-10.2983
▁信じられない	-10.2984
初めて	-10.2984
判断	-10.2987
하실	-10.2988
▁私たちの	-10.2991
▁後で	-10.2994
별	-10.2998
▁나머지	-10.3006
버려	-10.3008
▁봐야	-10.301
のせいで	-10.3011
続けて	-10.3012
あげる	-10.3013
련	-10.3016
▁向こう	-10.3018
▁감옥에	-10.3019
잡	-10.3019
▁점	-10.3021
の時	-10.3023
ちょうだい	-10.3024
殺害	-10.3025
なんだよ	-10.3025
始め	-10.3026
ファイル	-10.3026
知って	-10.3027
▁구할	-10.3028
飲んで	-10.3032
▁식	-10.3035
▁特に	-10.3035
표	-10.3037
▁行こう	-10.3039
売	-10.304
▁들리	-10.3044
レス	-10.3044
▁없었다	-10.3049
▁교수님	-10.3049
▁싶다	-10.305
横	-10.3054
してくれた	-10.3055
従	-10.3057
もなく	-10.3059
姿	-10.3061
▁검	-10.3064
▁꽃	-10.3064
じゃなく	-10.3066
▁있으니	-10.3066
▁마법	-10.3066
無し	-10.3068
に対して	-10.3074
める	-10.3075
pos	-10.3075
갔	-10.3077
▁진정	-10.3082
▁안돼요	-10.3088
▁for	-10.3089
▁도와	-10.3089
立ち	-10.3093
▁관리	-10.3093
▁최대한	-10.3094
▁독일	-10.3095
취	-10.3097
▁사건이	-10.3098
団	-10.3099
たちは	-10.31
未来	-10.3104
▁인간이	-10.3105
引	-10.3106
権	-10.3108
知った	-10.3109
▁뻔	-10.3115
▁예전	-10.3121
▁두려워	-10.3122
▁中	-10.3123
료	-10.3126
業	-10.3136
▁조금만	-10.3136
▁울	-10.3139
▁손님	-10.3144
ヶ月	-10.3147
失敗	-10.3148
▁見つけた	-10.3152
▁얘기가	-10.3153
좀	-10.3155
▁딸이	-10.3157
彼女が	-10.3163
メール	-10.3164
したくない	-10.3165
▁읽어	-10.3165
いいわ	-10.3167
▁ほとんど	-10.3167
▁그러고	-10.3168
▁들어요	-10.3169
▁돌아와	-10.3172
겠군	-10.3176
▁앉	-10.3176
を持つ	-10.3176
するために	-10.3178
▁같습니다	-10.3179
▁캐	-10.3181
▁소녀	-10.3181
▁オー	-10.3183
パン	-10.3188
レイ	-10.3191
텐데	-10.3193
下に	-10.3195
別れ	-10.3195
るよ	-10.3196
▁드디어	-10.3197
人達	-10.3197
▁잘했어	-10.3199
▁유지	-10.3199
政府	-10.3203
カード	-10.3205
▁방법은	-10.3205
自身	-10.3205
J	-10.3206
出来	-10.3206
▁직	-10.3206
▁저런	-10.3208
이니까	-10.3208
やり方	-10.3211
が来る	-10.3212
そこ	-10.3222
ve	-10.3223
▁こっちだ	-10.3224
on	-10.3228
▁ボス	-10.3229
▁것입니다	-10.323
▁言った	-10.3231
냈	-10.3233
要求	-10.3234
▁키스	-10.3234
▁할게	-10.3234
連中	-10.3235
忘れ	-10.3238
ないのか	-10.324
▁아름다운	-10.324
捜索	-10.324
▁숫자	-10.3241
オレ	-10.3242
▁영국	-10.3244
▁위치	-10.3252
待て	-10.3252
▁상황을	-10.3253
変わった	-10.3253
▁最後に	-10.3255
움	-10.326
젤	-10.3262
▁요리	-10.3262
▁삼촌	-10.3264
▁배신	-10.327
▁아님	-10.3274
人生を	-10.3274
ガス	-10.3277
連れ	-10.3277
혈	-10.3278
▁ドア	-10.328
슈	-10.3281
션	-10.3282
襲	-10.3282
했나	-10.3282
張	-10.3283
는군	-10.3286
▁알아내	-10.3287
▁자주	-10.329
信頼	-10.3291
▁누구도	-10.3292
だったの	-10.3293
▁프로	-10.3297
▁자신이	-10.3304
▁주면	-10.3305
▁ハー	-10.3309
일이	-10.3311
▁あまり	-10.3313
되면	-10.3313
▁やった	-10.3313
▁잃었	-10.3314
▁결과	-10.3315
▁워	-10.332
を見つけ	-10.3321
部隊	-10.3326
チャ	-10.3331
▁모르지	-10.3334
▁똥	-10.3335
▁죽이지	-10.3344
/	-10.3344
ぐらい	-10.3346
ッツ	-10.335
▁가방	-10.3351
を作る	-10.3354
ヒ	-10.3354
▁そいつ	-10.3356
▁예상	-10.336
▁하나도	-10.3361
壁	-10.3361
▁마음이	-10.3362
写真	-10.3365
わない	-10.3366
▁얼굴을	-10.3368
したわ	-10.337
▁ニューヨーク	-10.3371
▁주문	-10.3373
▁그러나	-10.3374
▁무엇을	-10.3375
▁引き	-10.3375
ほうがいい	-10.3375
▁どこで	-10.3378
▁힘이	-10.3379
▁we	-10.3382
街	-10.3383
스를	-10.3384
▁더는	-10.3384
部屋に	-10.3384
▁나올	-10.3385
▁시스템	-10.3386
仕	-10.3387
리아	-10.3387
▁いつか	-10.3388
▁母	-10.3389
▁창	-10.339
▁ここにいる	-10.339
이니	-10.3391
▁여기까지	-10.3394
▁남편이	-10.3394
▁판단	-10.3397
ボス	-10.3398
▁이쪽은	-10.3399
수가	-10.3402
보단	-10.3402
▁한잔	-10.3405
▁그렇다고	-10.3408
외	-10.3408
ふ	-10.341
▁이유를	-10.3413
脱	-10.3414
▁합	-10.3414
들어	-10.3416
▁そこ	-10.3416
리스	-10.3417
▁왓슨	-10.3417
▁특히	-10.3418
振り	-10.3421
したのか	-10.3424
▁죽이는	-10.3429
するか	-10.3434
십시오	-10.3435
▁세상이	-10.3437
▁살아있	-10.3439
によると	-10.3441
を見ろ	-10.3448
ファン	-10.3448
彼女に	-10.3448
▁초대	-10.345
▁The	-10.3451
쇼	-10.3457
落ち	-10.3458
データ	-10.3458
▁해롤드	-10.3461
▁신호	-10.3466
ヴ	-10.3466
▁모를	-10.3467
さない	-10.3467
▁준비해	-10.3468
門	-10.3469
▁이쪽	-10.3475
▁血	-10.3478
▁규칙	-10.3481
急	-10.3482
▁外	-10.3485
落	-10.3488
▁남자는	-10.3492
のことは	-10.3492
ノー	-10.3493
릭	-10.3495
分で	-10.3499
多くの	-10.3499
原	-10.3503
꾼	-10.3504
▁누군가가	-10.3508
버리	-10.351
▁얘	-10.351
▁긴장	-10.3511
▁맥주	-10.3515
▁돈은	-10.3517
한텐	-10.3518
▁何とか	-10.3521
戦い	-10.3527
重要	-10.3529
▁c	-10.353
ピー	-10.3532
▁교회	-10.3533
▁밖에서	-10.3542
▁보러	-10.3546
隣	-10.3547
▁죽었어요	-10.3549
人と	-10.355
▁일어난	-10.3551
베	-10.3552
▁점점	-10.3552
▁お母さん	-10.3553
▁적은	-10.3553
▁원해	-10.3553
たわ	-10.3555
▁未来	-10.3558
▁없다는	-10.3559
いれば	-10.3562
伝え	-10.3562
치는	-10.3564
ただ	-10.3565
▁빼고	-10.3567
스러운	-10.3568
▁부모님	-10.357
思い出	-10.3572
▁이틀	-10.3573
ch	-10.3573
▁실망	-10.3575
▁パ	-10.3577
▁モ	-10.3579
▁데려와	-10.358
▁ミスター	-10.3588
스키	-10.3588
▁식으로	-10.3589
剣	-10.3591
▁바람	-10.3592
▁서류	-10.3593
開	-10.3593
녀	-10.3594
契約	-10.3596
▁그러다	-10.3597
さんは	-10.3599
▁조각	-10.36
年に	-10.36
スタ	-10.3603
目を	-10.3603
医者	-10.3603
▁쓰고	-10.3606
▁애를	-10.3607
▁하나가	-10.3608
わけじゃない	-10.3608
▁マイケル	-10.3608
までは	-10.3609
▁돌아왔	-10.3612
슬	-10.3615
▁銃を	-10.3617
の男	-10.3619
沢山	-10.3621
▁どっち	-10.3624
▁ー	-10.3624
▁O	-10.3625
▁움직여	-10.3625
んな	-10.3626
▁아래	-10.3629
▁짓이야	-10.363
▁벽	-10.3631
が要る	-10.3639
できなかった	-10.3639
it	-10.3641
耳	-10.3641
▁이러지	-10.3642
▁돌아갈	-10.3643
クラブ	-10.3643
▁ちょうど	-10.3647
골	-10.3647
했는지	-10.3648
▁本当	-10.365
俺に	-10.365
알	-10.3651
▁놓	-10.3653
▁w	-10.3656
▁것보다	-10.3657
▁모습을	-10.3659
どうして	-10.3659
▁行く	-10.3659
▁전화해	-10.3663
▁ナ	-10.3664
▁어차피	-10.3664
くて	-10.3668
▁学校	-10.3671
素	-10.3676
▁フィル	-10.3679
▁기억해	-10.3681
論	-10.3683
ミス	-10.3683
▁같군	-10.3684
上の	-10.3685
安心	-10.369
一杯	-10.369
▁おはよう	-10.3692
남	-10.3692
▁남자를	-10.3692
▁병원에	-10.3694
▁될까	-10.3695
▁모자	-10.3696
시켰	-10.3699
이네요	-10.3699
▁톰	-10.37
19	-10.3701
▁벗	-10.3701
真	-10.3701
▁고통	-10.3705
知ってた	-10.3708
소리	-10.3708
▁얘들아	-10.3711
俺達	-10.3713
▁こいつは	-10.3717
▁맥스	-10.3719
二	-10.3721
▁싸우	-10.3723
機会	-10.3723
▁꾸	-10.3724
紙	-10.3724
ギ	-10.373
ホ	-10.3732
▁오랫동안	-10.3733
▁훔쳐	-10.3733
▁소유	-10.3733
▁마녀	-10.3739
覚え	-10.374
住所	-10.3741
▁足	-10.3741
▁너가	-10.3743
全体	-10.3743
奴だ	-10.3743
なければならない	-10.3745
があるんだ	-10.3746
▁쏘	-10.3747
▁쓰지	-10.3749
▁피를	-10.3753
▁담당	-10.3754
▁좋았어	-10.3756
くなる	-10.3757
▁わかる	-10.3764
▁警官	-10.3764
いるのか	-10.3764
してるんだ	-10.3764
早い	-10.3771
活動	-10.3776
▁위로	-10.3777
18	-10.3777
▁そ	-10.3778
脅威	-10.3779
▁頼む	-10.3779
▁설득	-10.3779
▁연방	-10.3781
だけよ	-10.3782
記事	-10.3783
アリ	-10.3784
シン	-10.3786
빈	-10.3787
시킨	-10.3789
놨	-10.3789
▁거짓말을	-10.379
▁セ	-10.3794
木	-10.3795
▁아니었어	-10.3795
명을	-10.3795
希望	-10.38
村	-10.3801
▁만들고	-10.3801
んじゃないか	-10.3802
▁인정	-10.3802
銀行	-10.3802
▁휴대폰	-10.3802
使用	-10.3803
▁やっと	-10.3806
▁やる	-10.3806
▁설치	-10.3807
しようと	-10.3808
▁アレックス	-10.3811
もらった	-10.3819
もん	-10.3821
代わりに	-10.3822
힐	-10.3823
▁무서워	-10.3823
▁파일	-10.3826
合う	-10.3826
▁일부	-10.3827
による	-10.3829
▁기회가	-10.383
場所に	-10.3832
페	-10.3838
▁そっち	-10.384
잔	-10.3841
実験	-10.3842
ロック	-10.3842
考えてる	-10.3843
▁개인	-10.3846
FBI	-10.3846
▁無理	-10.3846
▁しばらく	-10.3848
断	-10.3848
▁운	-10.385
▁시험	-10.385
▁on	-10.3851
▁p	-10.3854
하길	-10.3855
사가	-10.3856
▁차가	-10.3861
▁똑같은	-10.3866
▁복	-10.3867
家で	-10.3867
달라고	-10.387
▁터	-10.3871
▁믿는	-10.3873
량	-10.3874
の名前は	-10.3874
▁제다이	-10.3875
▁도움을	-10.3875
▁사람의	-10.3876
だぜ	-10.3877
▁―	-10.3879
▁제안	-10.388
▁結局	-10.388
▁곳으로	-10.3881
▁꼬	-10.3882
立って	-10.3883
信	-10.3886
▁話	-10.3888
一日	-10.389
거요	-10.3891
言ってくれ	-10.3893
破壊	-10.3895
▁쟤	-10.3895
하니까	-10.3897
▁경기	-10.3898
▁강도	-10.3898
▁アル	-10.3899
빌	-10.3899
▁곳에서	-10.39
▁말했다	-10.39
▁케	-10.3901
▁겁	-10.3903
させない	-10.3907
▁만들었	-10.391
▁대왕님	-10.3917
▁잊지	-10.3919
▁하늘	-10.3919
ション	-10.3919
▁ロー	-10.393
言葉	-10.393
▁글	-10.3932
安	-10.3932
▁フィ	-10.3933
누	-10.3934
▁종	-10.3937
こい	-10.394
▁실패	-10.3942
過	-10.3942
▁캐럴	-10.3942
▁사람이야	-10.3943
▁싶으면	-10.3945
洗	-10.3945
▁때는	-10.3946
▁악마	-10.3947
好きな	-10.395
くない	-10.3954
立	-10.3956
研究	-10.3957
▁짓이	-10.3957
▁まぁ	-10.396
스는	-10.3962
▁얘기는	-10.3962
도요	-10.3967
▁형이	-10.3968
俺を	-10.3969
▁못한	-10.397
▁皆さん	-10.3975
あと	-10.3977
▁思い	-10.3978
十分	-10.398
▁약을	-10.398
▁켜	-10.3981
せて	-10.3986
▁충격	-10.3989
▁중국	-10.399
▁어딜	-10.399
▁썩	-10.3993
▁끝나	-10.3994
▁이사	-10.3995
防	-10.3995
▁ハンク	-10.3996
▁바다	-10.3997
▁없소	-10.3997
줬	-10.3998
ガキ	-10.4001
▁포기	-10.4002
느냐	-10.4003
ないぞ	-10.4007
▁남았	-10.401
▁상관없어	-10.4013
ックス	-10.4013
無視	-10.4015
▁ダ	-10.4016
おく	-10.4017
▁모두를	-10.4025
▁물러서	-10.4026
시다	-10.4026
戻った	-10.4027
▁피해	-10.4029
▁시간은	-10.4031
샤	-10.4031
▁무사	-10.4032
逮捕	-10.4033
なくても	-10.4034
取って	-10.4035
▁ショー	-10.4037
▁あなたには	-10.4038
決め	-10.4038
▁良かった	-10.4038
▁올라가	-10.4039
▁범인	-10.4039
しません	-10.404
▁눈이	-10.404
いたら	-10.4041
利用	-10.4041
を引き	-10.4042
▁좋았	-10.4042
れて	-10.4042
▁갔다	-10.4045
침	-10.4046
▁最高	-10.4048
美しい	-10.4048
待ち	-10.4049
40	-10.405
년에	-10.405
為	-10.4051
▁잡을	-10.4054
▁あそこ	-10.4055
夫人	-10.4056
이든	-10.4056
▁絶対	-10.406
停止	-10.406
一緒	-10.4061
▁가세요	-10.4062
議員	-10.4062
レベル	-10.4065
歩	-10.4065
とでも	-10.4067
完璧	-10.4073
▁정리	-10.4074
▁알아보	-10.4075
▁이쪽으로	-10.4075
▁이후로	-10.4076
▁이러는	-10.4077
だけです	-10.408
주고	-10.4083
▁모습	-10.4085
▁둬	-10.4085
레이	-10.4087
書類	-10.409
自分で	-10.4092
▁小	-10.4093
▁붙	-10.4093
뿐이	-10.4097
クス	-10.4097
▁ゆっくり	-10.4097
愛する	-10.4102
誰が	-10.4103
きました	-10.4105
せよ	-10.4107
時には	-10.4107
賢い	-10.4109
ジャ	-10.4111
웠	-10.4113
▁ジェ	-10.4113
▁회의	-10.4114
▁大丈夫よ	-10.4115
▁僕も	-10.4116
▁一度	-10.4117
하십시오	-10.4117
▁医者	-10.412
ダン	-10.4122
▁いま	-10.4122
▁상관없	-10.4123
입니까	-10.4124
▁했는지	-10.4125
인데요	-10.4127
見てる	-10.4129
の家	-10.4129
▁黙って	-10.413
支援	-10.4131
▁今度は	-10.4132
撃ち	-10.4132
▁조종	-10.4132
V	-10.4133
ても	-10.4133
수록	-10.4138
バス	-10.4138
恋	-10.4139
▁걸릴	-10.4139
イル	-10.414
熱	-10.4141
▁しっかり	-10.4142
▁주소	-10.4143
元気	-10.4143
▁一番	-10.4145
だったんだ	-10.4146
▁요원이	-10.4146
하니	-10.4147
中だ	-10.4147
까진	-10.415
▁없었	-10.4151
の息子	-10.4151
▁뭐예요	-10.4153
ドア	-10.4154
城	-10.4155
장을	-10.4159
▁낭비	-10.416
항	-10.416
満足	-10.4164
▁끝났	-10.4164
トリ	-10.4165
▁용의자	-10.4167
▁あー	-10.4167
▁キミ	-10.4168
▁보관	-10.4169
▁거잖아	-10.4171
▁직장	-10.4174
▁하기	-10.4175
▁화가	-10.4176
市民	-10.4179
▁있겠지	-10.4181
面倒	-10.4182
自分	-10.4182
▁박	-10.4185
感情	-10.4185
하셨	-10.4185
▁そうです	-10.4186
▁安全	-10.4194
▁공포	-10.4194
라서	-10.4195
理解	-10.4196
送り	-10.4197
졌어요	-10.4197
最高の	-10.4202
▁홈즈	-10.4204
▁どうだ	-10.4204
▁싸울	-10.4205
▁決して	-10.4206
貴方	-10.4208
▁있기	-10.421
証明	-10.4213
승	-10.4216
손	-10.4217
感じる	-10.4219
▁싶었	-10.422
意識	-10.4223
▁폐하	-10.4224
▁암호	-10.4224
▁엘	-10.4226
書き	-10.4227
みろ	-10.4228
▁고맙습니다	-10.4228
▁얘긴	-10.423
▁your	-10.4231
▁도와줘요	-10.4232
いつ	-10.4233
▁先生	-10.4241
携帯	-10.4242
終わった	-10.4242
の為	-10.4244
者を	-10.4248
▁유리	-10.4248
花	-10.4251
価値	-10.4251
▁특별	-10.4256
倒	-10.4259
▁쥐	-10.4261
f	-10.4262
幸運	-10.4267
の事は	-10.427
▁보스	-10.427
▁없잖아요	-10.427
▁그거야	-10.4271
▁지도	-10.4272
以来	-10.4274
▁화장실	-10.4274
虫	-10.4276
▁위대한	-10.4276
明日	-10.4278
でしょうか	-10.428
頭に	-10.4284
▁애들이	-10.4287
▁꼬마	-10.4288
▁グ	-10.4289
任務	-10.429
ダメだ	-10.4294
▁さっき	-10.4298
▁위험해	-10.4299
▁닥쳐	-10.43
となる	-10.4301
決めた	-10.4305
帰って	-10.4307
呼び	-10.4308
▁죽고	-10.4308
▁발사	-10.4309
終わる	-10.4311
殺された	-10.4312
ボール	-10.4315
のせいだ	-10.4316
▁소식	-10.4323
▁동네	-10.4332
我々は	-10.4333
▁자네를	-10.4334
백만	-10.4336
하겠지	-10.4337
▁夫	-10.4339
▁챙겨	-10.434
注意	-10.4345
てない	-10.4348
訓練	-10.4349
▁회복	-10.4349
おう	-10.435
治	-10.435
▁목숨	-10.4355
▁재미있	-10.4359
▁こういう	-10.4361
▁소년	-10.4363
ナン	-10.4365
いるか	-10.4366
どこに	-10.437
▁연기	-10.4371
症	-10.4372
▁have	-10.4373
はどうだ	-10.4375
ニア	-10.4376
配	-10.438
se	-10.4385
悪く	-10.4388
殺人	-10.439
種	-10.4394
▁お金	-10.4396
▁겨우	-10.4398
▁소개	-10.4398
聞きたい	-10.4399
我々	-10.4406
を探す	-10.4411
やめて	-10.4412
調	-10.4413
▁버리	-10.4416
리고	-10.4421
絵	-10.4422
▁착륙	-10.4422
▁長	-10.4425
▁아무리	-10.4425
ています	-10.4431
▁남아	-10.4431
現実	-10.4431
▁それでも	-10.4434
▁건강	-10.4434
ける	-10.4437
▁我が	-10.444
消えた	-10.4442
してやる	-10.4444
っていた	-10.4448
▁내리	-10.4449
하긴	-10.4449
▁엔진	-10.4449
▁毎日	-10.445
사람	-10.4452
▁목소리	-10.4453
▁치워	-10.4453
▁그렇고	-10.4453
▁워커	-10.4454
▁ビル	-10.4455
숙	-10.4455
弁護士	-10.4457
▁정도로	-10.4462
▁자는	-10.4467
提案	-10.4472
ント	-10.4472
▁今夜は	-10.4473
▁보여줘	-10.4476
▁ミス	-10.4476
▁사라	-10.4477
▁주변	-10.4477
시는	-10.4478
ウィ	-10.4479
벌	-10.448
▁있을까요	-10.448
楽しみ	-10.4481
最高	-10.4483
話せ	-10.4486
▁ホ	-10.4487
壊	-10.4487
しかった	-10.4489
▁수술	-10.449
味方	-10.4491
戻ってくる	-10.4493
▁その時	-10.4494
▁넘	-10.4495
▁가짜	-10.4499
▁장치	-10.45
▁いいぞ	-10.4501
▁바꾸	-10.4503
순	-10.4506
▁있었고	-10.4508
▁戦争	-10.4509
進	-10.4511
▁メイ	-10.4512
明	-10.4513
▁말해줘	-10.4517
女の子	-10.4519
맞	-10.4522
▁それも	-10.4522
▁떼	-10.4523
▁라이	-10.4525
▁보자고	-10.4532
▁들어오	-10.4533
の方が	-10.4534
忘れて	-10.4537
듯	-10.454
▁おお	-10.454
としたら	-10.4544
散	-10.4545
▁없어서	-10.4545
ティー	-10.4546
▁分かる	-10.4547
爆弾	-10.4547
▁무기를	-10.4548
▁주인	-10.4549
▁전문가	-10.455
왕	-10.4553
▁침입	-10.4556
深い	-10.4557
会える	-10.456
했소	-10.4562
▁そうじゃない	-10.4564
▁구조	-10.4564
거라고	-10.4565
롭	-10.457
▁된다고	-10.4572
폭	-10.4573
▁うまく	-10.4575
▁친구를	-10.4575
▁あいつは	-10.4576
▁ここが	-10.4576
が来た	-10.4579
다니까	-10.4581
▁君には	-10.4583
嘘	-10.4583
▁最も	-10.4584
リーダー	-10.4585
のせい	-10.4588
入って	-10.4591
するよ	-10.4593
▁시대	-10.4594
教授	-10.4596
▁연습	-10.4596
▁문제를	-10.4599
状	-10.4604
리지	-10.4606
▁때마다	-10.461
압	-10.4612
뿐이야	-10.4615
▁밑에	-10.4615
▁역사	-10.4623
으론	-10.4623
▁너희들	-10.4625
▁카터	-10.4626
▁것들	-10.4626
▁해킹	-10.4629
▁도로	-10.4629
生きる	-10.4631
▁클럽	-10.4635
出発	-10.4637
득	-10.4639
南	-10.4642
없이	-10.4643
▁과학	-10.4645
▁앨런	-10.4646
に対する	-10.4647
必要はない	-10.4648
なくなった	-10.4648
資金	-10.4649
▁言って	-10.4651
▁고객	-10.4654
解放	-10.4657
였는데	-10.4658
▁마셔	-10.466
▁안에서	-10.4664
▁頭	-10.4664
▁감정	-10.4667
▁메시지	-10.4668
▁엄마를	-10.467
過ぎ	-10.4671
▁담배	-10.4672
▁운동	-10.4673
そうな	-10.4674
ディー	-10.4675
▁そのまま	-10.4677
平	-10.4685
のない	-10.4687
産	-10.4687
到着	-10.4688
運命	-10.4689
▁어이	-10.4691
▁非常に	-10.4693
唯一の	-10.4697
▁졸업	-10.4697
▁싶었어	-10.47
パーティー	-10.4701
th	-10.4703
飲み	-10.4704
消え	-10.4707
▁殺す	-10.4708
▁サン	-10.471
할까	-10.4711
▁絶対に	-10.4714
渡	-10.4714
지면	-10.4716
のも	-10.4718
いって	-10.4721
▁know	-10.4722
▁노예	-10.4723
ッチ	-10.4723
▁일주일	-10.4723
おかしい	-10.4724
▁사실은	-10.4724
売り	-10.4733
▁찍	-10.4735
▁거라면	-10.4735
兄	-10.4737
▁따르면	-10.4739
列車	-10.474
使う	-10.474
▁살인자	-10.4741
みる	-10.4746
염	-10.4746
▁別に	-10.4751
▁미리	-10.4751
は私	-10.4753
놈	-10.4754
は何だ	-10.4758
付き	-10.4758
▁로봇	-10.476
▁국가	-10.4761
瞬間	-10.4764
▁소리를	-10.4769
▁女性	-10.4769
ゴー	-10.4772
所に	-10.4774
▁숨어	-10.4777
▁점심	-10.4778
自	-10.4781
했	-10.4781
▁急げ	-10.4782
ジョ	-10.4783
のお	-10.4791
▁진정한	-10.4792
▁됐다	-10.4796
▁아닌데	-10.4797
▁변화	-10.4798
パートナー	-10.4798
▁맞춰	-10.4798
どうぞ	-10.48
▁씨가	-10.48
▁알려주	-10.4801
食べて	-10.4805
邪魔	-10.4806
タン	-10.4807
言わなかった	-10.4809
ジャック	-10.4814
でき	-10.4818
▁그녀에게	-10.4818
▁写真	-10.4822
으려고	-10.4824
橋	-10.4824
▁라이언	-10.4824
制御	-10.4825
▁準備	-10.4828
日に	-10.4828
▁창문	-10.4828
▁街	-10.4828
un	-10.4832
▁슬	-10.4832
私たち	-10.4838
メン	-10.4838
キング	-10.4841
成功	-10.4844
▁높은	-10.4845
동안	-10.4845
流れ	-10.4846
완	-10.4847
▁블랙	-10.4849
폰	-10.4849
▁저한테	-10.4849
▁있습니까	-10.485
▁테스트	-10.4851
▁部屋	-10.4851
ないように	-10.4851
盗	-10.4853
▁아이들	-10.4855
宇宙	-10.4858
よい	-10.4859
▁카라	-10.4861
축	-10.4862
だったわ	-10.487
やり	-10.4871
하시죠	-10.4871
▁명의	-10.4872
したのは	-10.4873
드려	-10.4874
場所は	-10.4875
▁보인다	-10.4878
クロ	-10.4879
▁잡고	-10.488
無く	-10.4882
▁危険	-10.4882
▁マイク	-10.4886
生きている	-10.4887
년이	-10.489
支配	-10.4893
▁때도	-10.4895
▁이모	-10.4895
案	-10.4897
わかってる	-10.4897
찌	-10.4897
액	-10.4898
製	-10.49
教え	-10.49
猫	-10.4901
▁証拠	-10.4902
▁설명해	-10.4905
言うな	-10.4908
▁심장	-10.491
の方	-10.4915
銃を	-10.4916
▁하나만	-10.4918
▁것만	-10.4919
힌	-10.4921
物だ	-10.4921
ことで	-10.4922
程	-10.4923
▁OK	-10.4926
▁그랬지	-10.4927
▁통신	-10.4928
▁법을	-10.4929
▁발생	-10.4932
▁右	-10.4933
▁사진을	-10.4933
▁피가	-10.4933
▁거니까	-10.4933
▁앤	-10.4934
とは違う	-10.4936
점을	-10.4936
▁持って	-10.4937
▁내부	-10.4938
エン	-10.4939
姉	-10.4941
▁몸을	-10.4941
▁フ	-10.4942
죽	-10.4945
▁덜	-10.4947
アイ	-10.4948
▁섹스	-10.495
▁제임스	-10.4953
者に	-10.4954
上に	-10.4955
知り	-10.4961
▁메이	-10.4962
▁お前も	-10.4967
死んで	-10.4972
▁받는	-10.4972
アメリカ	-10.4975
▁뒷	-10.4976
見つかった	-10.4976
꺼	-10.4976
▁평화	-10.4977
作り	-10.4977
勝利	-10.4979
클	-10.4979
知る	-10.4981
▁最高の	-10.4982
▁いつでも	-10.4982
映像	-10.4985
▁가문	-10.4986
▁직업	-10.4986
▁聞いた	-10.4988
력이	-10.4992
지가	-10.4993
▁説明	-10.4993
頼む	-10.4995
▁몰	-10.4996
▁잘해	-10.4999
▁聞いてくれ	-10.5004
決定	-10.5005
▁다시는	-10.5005
名は	-10.5006
座	-10.5007
▁上	-10.5007
くれて	-10.501
連れて行く	-10.5011
▁ファ	-10.5012
物は	-10.5015
行かないと	-10.5017
いけない	-10.5019
帰	-10.5023
守る	-10.5023
▁조심	-10.5023
そして	-10.5028
▁왜요	-10.503
17	-10.503
▁반드시	-10.5031
▁아세요	-10.5037
▁신발	-10.5037
旅行	-10.5038
▁부족	-10.5042
ソー	-10.5043
▁세워	-10.5047
▁장군	-10.5048
▁もうすぐ	-10.5052
バック	-10.5053
잖니	-10.5053
変わる	-10.5056
셀	-10.5057
ヒーロー	-10.5058
▁능력	-10.5058
プロ	-10.5061
뜨	-10.5061
▁선수	-10.5062
▁막아	-10.5062
列	-10.5064
▁悪	-10.5066
飛行機	-10.5067
▁マー	-10.5069
▁죽지	-10.5072
▁やっぱり	-10.5074
入る	-10.5075
になり	-10.5077
たく	-10.5078
奴は	-10.5078
会話	-10.508
▁믿고	-10.5083
▁言い	-10.5083
▁무리	-10.5087
▁있었는지	-10.5088
▁人生	-10.5089
打ち	-10.509
暮らし	-10.5091
▁각	-10.5092
광	-10.5096
마일	-10.5097
▁J	-10.5098
▁듣	-10.5101
▁부모	-10.5103
真実	-10.5106
▁느낌이	-10.5106
心を	-10.5107
한다는	-10.5107
▁도망가	-10.5109
▁크리스마스	-10.511
嫌い	-10.5112
▁몸이	-10.5113
▁左	-10.5119
▁인간의	-10.512
▁절대로	-10.5122
렸어	-10.5124
知っていた	-10.5124
▁お互い	-10.5125
▁나만	-10.5125
進め	-10.5126
▁両親	-10.5127
길래	-10.5128
▁경험	-10.5129
▁死体	-10.5135
▁가만히	-10.5137
たいの	-10.5139
方法を	-10.514
の一部	-10.5141
▁전하	-10.5141
▁나오는	-10.5143
を使う	-10.5146
줬어	-10.5146
そんなに	-10.5147
▁アン	-10.5147
▁ここを	-10.5148
エイ	-10.5151
出た	-10.5151
랐	-10.5154
▁모르고	-10.5155
▁신문	-10.5156
▁모르겠네요	-10.5156
▁We	-10.5159
원이	-10.5161
▁地球	-10.5162
ひどい	-10.5163
시면	-10.517
▁금고	-10.5172
▁근무	-10.5173
せない	-10.5174
無事	-10.518
を持っている	-10.5182
おまえ	-10.5185
우스	-10.5186
ヌ	-10.5187
場所を	-10.5187
▁先	-10.5188
▁승리	-10.5188
したか	-10.5189
英雄	-10.5189
修理	-10.5189
望む	-10.519
▁갈게요	-10.5192
조차	-10.5192
▁저쪽	-10.5192
手段	-10.5192
示	-10.5193
時間が	-10.5198
짝	-10.52
▁원하지	-10.52
▁あっ	-10.52
▁할게요	-10.5202
意見	-10.5203
스타	-10.5205
▁신부	-10.5205
ついた	-10.5205
お金	-10.5206
犯罪者	-10.5207
はい	-10.5208
異	-10.521
전에	-10.5214
▁죽기	-10.5215
▁명령을	-10.5219
해야지	-10.5222
死んでる	-10.5223
▁60	-10.5224
수도	-10.5227
知らなかった	-10.5229
扱い	-10.5233
▁이야기를	-10.5237
▁冗談	-10.5238
保	-10.524
▁뱀파이어	-10.5242
▁현장	-10.5244
▁もしもし	-10.5245
増	-10.5247
ハイ	-10.5247
小さな	-10.5248
▁기차	-10.5249
▁완벽한	-10.525
▁에디	-10.5255
▁했잖아요	-10.5256
14	-10.5258
▁他	-10.5258
십니까	-10.5261
▁소리가	-10.5264
▁いいから	-10.5265
▁he	-10.5265
보세요	-10.5266
倍	-10.5269
▁어찌	-10.5271
土	-10.5272
勝	-10.5276
▁토드	-10.5279
▁시작해	-10.5286
毎	-10.5288
왔어	-10.5289
特	-10.5289
▁알렉	-10.529
▁찾아내	-10.5291
完了	-10.5292
▁名前	-10.5292
と共に	-10.5293
回復	-10.5293
ワイ	-10.5295
都市	-10.5296
の話を	-10.5296
いろ	-10.5299
戻って	-10.5305
▁군대	-10.5305
かす	-10.5305
のようだ	-10.5306
▁인생을	-10.5306
▁문자	-10.5307
▁ノー	-10.5308
든지	-10.5311
▁멈추	-10.5312
出来た	-10.5312
誰かが	-10.5313
▁제공	-10.5314
랜드	-10.5319
▁녀석이	-10.5319
根	-10.532
▁ウィル	-10.5324
退	-10.5327
▁やって	-10.5327
▁陛下	-10.5329
▁良く	-10.533
▁폭력	-10.5331
▁허가	-10.5332
リース	-10.5333
▁아버지를	-10.5335
▁먹었	-10.5335
▁맛	-10.5341
難しい	-10.5341
됐다	-10.5342
돈	-10.5342
▁있거든	-10.5347
るのよ	-10.5349
▁했	-10.535
一番	-10.535
時の	-10.535
僕が	-10.5352
ステ	-10.5353
まれ	-10.5354
▁カメラ	-10.5354
送	-10.5355
▁목표	-10.5356
させてくれ	-10.5357
▁맨	-10.5359
▁そんな事	-10.5366
▁확실한	-10.5367
▁攻撃	-10.5374
掛け	-10.5377
▁고향	-10.5378
▁미안하지만	-10.5378
鳥	-10.5379
標的	-10.5381
v	-10.5381
▁들어갈	-10.5382
まま	-10.5382
▁親父	-10.5383
▁상사	-10.5385
▁빌리	-10.5386
角	-10.5387
▁꿈을	-10.5387
▁어릴	-10.5387
▁어쩌	-10.539
▁결	-10.5392
▁후회	-10.5392
▁最初に	-10.5393
パーティ	-10.5394
埋め	-10.5394
▁생활	-10.5395
▁녹	-10.5395
▁犯人は	-10.5396
までに	-10.5397
ro	-10.54
交換	-10.5404
▁증언	-10.5404
이었지	-10.5405
▁자꾸	-10.5405
▁청소	-10.5411
이드	-10.5414
▁그들에게	-10.5417
多	-10.5418
패	-10.5418
書いて	-10.5418
는요	-10.542
ベン	-10.5421
ぁ	-10.5421
▁이러	-10.5421
▁ハリー	-10.5422
▁父	-10.5422
자리	-10.5423
▁二	-10.5426
千	-10.5428
のかしら	-10.5428
罰	-10.5431
▁헨리	-10.5431
大佐	-10.5431
開始	-10.5433
仕事は	-10.5437
▁본부	-10.5437
白	-10.5438
▁대통령님	-10.5441
▁누구든	-10.5441
치고	-10.5442
▁교수	-10.5443
은요	-10.5448
▁He	-10.545
▁놈들은	-10.5451
▁것과	-10.5453
を頼む	-10.5456
逆	-10.5456
▁レイ	-10.5457
▁고양이	-10.5458
▁금지	-10.5458
▁불법	-10.5463
が死んだ	-10.5463
立場	-10.5465
▁실은	-10.5466
系	-10.5466
無理	-10.5467
ドン	-10.5467
▁크게	-10.5468
師	-10.5469
▁중입니다	-10.5471
▁W	-10.5473
▁걱정하지	-10.5474
▁모르겠다	-10.5478
▁우리와	-10.548
▁그동안	-10.5481
▁何だって	-10.5481
かれ	-10.5483
潰	-10.5485
奴隷	-10.5485
処理	-10.5486
▁차려	-10.5486
▁설마	-10.5488
の仕事	-10.5491
事務所	-10.5493
▁침대	-10.5496
書いた	-10.5496
▁가정	-10.5498
▁생기	-10.5501
でしょうね	-10.5501
いたんだ	-10.5502
▁가능하	-10.5502
すごい	-10.5506
▁잡았	-10.5507
視	-10.5508
▁캐리	-10.5512
▁ハロルド	-10.5513
▁엎드려	-10.5513
▁열심히	-10.5513
こっち	-10.5513
▁맞죠	-10.5513
▁해줘	-10.5514
▁반지	-10.5514
義	-10.5518
ちゃ	-10.5523
▁잘못된	-10.5526
렸어요	-10.5529
▁망치	-10.5529
▁최근	-10.553
▁예쁘	-10.5532
▁뿐이	-10.5533
▁동의	-10.5533
を受けた	-10.5533
▁くそ	-10.5534
利	-10.5534
撃つ	-10.5534
▁뭐라	-10.5535
グル	-10.5536
便	-10.5537
▁わし	-10.5539
▁따라와	-10.5539
みよう	-10.5543
ウィン	-10.5549
줄래	-10.555
▁バリー	-10.555
へ行く	-10.5551
▁이만	-10.5551
▁피부	-10.5553
송	-10.5554
▁머리에	-10.5554
ブル	-10.5555
▁いくら	-10.5555
▁의원님	-10.556
ジェイ	-10.5562
▁머리가	-10.5565
X	-10.5566
限	-10.5568
追跡	-10.5569
教える	-10.5569
▁弟	-10.5569
▁즉시	-10.5571
▁シャーロック	-10.5573
▁do	-10.5575
▁위치를	-10.5577
▁속에서	-10.5582
可能性	-10.5586
▁혼자서	-10.5587
▁잠시만요	-10.5589
▁혼	-10.5592
▁믿어요	-10.5592
お前が	-10.5592
▁아내가	-10.5594
参	-10.5595
たくさん	-10.5596
の上に	-10.5601
▁情報	-10.5603
▁리가	-10.5603
▁같네	-10.5604
▁옷을	-10.5608
▁弁護士	-10.5611
結	-10.562
▁골	-10.562
飲む	-10.562
▁항	-10.5622
▁そうよ	-10.5622
魚	-10.5623
遊び	-10.5623
に戻って	-10.5623
ったの	-10.5624
▁더이상	-10.5624
▁파리	-10.5625
야겠어요	-10.5626
長い	-10.5631
の声	-10.5631
16	-10.5634
▁칠	-10.5635
▁받으	-10.5636
▁できる	-10.564
歯	-10.5643
▁나타나	-10.5643
▁誰に	-10.5645
▁기도	-10.5645
証	-10.5651
이자	-10.5651
才能	-10.5651
グループ	-10.5652
▁줄리안	-10.5653
▁가져오	-10.5654
▁죽이려고	-10.5657
言われた	-10.5658
死亡	-10.5658
感謝する	-10.5665
始める	-10.5666
▁거긴	-10.5668
だろうが	-10.567
うちに	-10.5672
▁여왕	-10.5674
▁미래를	-10.5677
いっぱい	-10.5679
接触	-10.5679
▁남겨	-10.5681
に来る	-10.5681
▁약간	-10.5681
▁확실해	-10.5681
動物	-10.5682
▁작품	-10.5684
基地	-10.5685
▁클레어	-10.5686
避難	-10.5686
▁해주	-10.5686
▁거리	-10.5688
▁먹는	-10.5689
物語	-10.569
生まれ	-10.5691
だけが	-10.5692
広	-10.5693
▁高	-10.5693
になれる	-10.5694
▁근처에	-10.5695
▁カール	-10.5695
どうする	-10.5695
▁투자	-10.5696
余	-10.5696
▁멀	-10.5697
▁필요는	-10.5704
▁경비	-10.5704
てきた	-10.5704
られてる	-10.5707
帽子	-10.5707
になります	-10.5709
痛い	-10.5709
▁現在	-10.5712
して欲しい	-10.5712
▁어렵	-10.5712
▁実際	-10.5713
時計	-10.5717
리를	-10.5717
▁지미	-10.5719
▁計画	-10.5721
でいい	-10.5726
란다	-10.5729
共	-10.5731
▁주장	-10.5731
▁殺人	-10.5732
来ました	-10.5734
パイロット	-10.5735
▁에이미	-10.5736
に違いない	-10.5738
사를	-10.5739
▁뿐	-10.5741
▁ええと	-10.5743
必要ない	-10.5744
▁出て	-10.5745
▁경찰에	-10.5746
▁妹	-10.5747
お父さん	-10.5754
▁내버려	-10.5754
向	-10.5754
ad	-10.5755
▁だって	-10.5756
▁ウソ	-10.5758
▁자리를	-10.5762
▁특	-10.5763
▁this	-10.5763
▁압니다	-10.5763
▁메리	-10.5765
呼んで	-10.5766
▁유령	-10.5766
必要だ	-10.5767
離れて	-10.577
負	-10.5771
▁秘密	-10.5771
▁그렇다	-10.5772
タイ	-10.5772
ケツ	-10.5774
当て	-10.5777
놈의	-10.5781
▁지하	-10.5784
▁것에	-10.5786
大学	-10.5786
残念だ	-10.5788
▁걸려	-10.5789
それで	-10.5791
▁奴の	-10.5791
▁일어날	-10.5791
変更	-10.5792
調べて	-10.5792
▁끝난	-10.5793
▁지키	-10.5794
実行	-10.5794
▁キャロル	-10.5798
▁탓	-10.5798
▁끊어	-10.58
ろうと	-10.5801
いたの	-10.5801
로는	-10.5802
▁왕이	-10.5802
かけた	-10.5804
きれい	-10.5806
異常	-10.5809
놓	-10.5809
オン	-10.581
合い	-10.5812
▁二度と	-10.5813
▁被害者	-10.5815
▁돼서	-10.5817
▁아는데	-10.5819
剤	-10.5819
▁우주선	-10.582
機能	-10.582
▁되는데	-10.5822
市	-10.5823
았어	-10.5824
하잖아요	-10.5824
▁시설	-10.5825
両親	-10.5828
젠	-10.5828
킨	-10.5835
▁속이	-10.5837
薬を	-10.5838
教	-10.5838
終わりだ	-10.5839
▁小さな	-10.5842
충	-10.5842
▁보죠	-10.5842
▁냄새가	-10.5845
危険だ	-10.5846
天	-10.5847
教えてくれ	-10.5847
▁서명	-10.5847
卿	-10.5848
▁わたし	-10.5848
説得	-10.5848
▁아니었	-10.585
にならない	-10.5852
彼らは	-10.5853
誘拐	-10.5856
▁이기	-10.5857
새	-10.5858
▁안다	-10.5858
▁今から	-10.5858
裏	-10.586
再	-10.586
▁않지만	-10.5862
▁말인지	-10.5863
▁ト	-10.5863
日間	-10.5864
es	-10.5865
▁전엔	-10.5868
▁가졌	-10.5868
▁지옥	-10.5868
テロ	-10.5872
べきだった	-10.5872
겠	-10.5873
▁어둠	-10.5873
▁해야지	-10.5875
13	-10.5877
▁자동차	-10.5877
▁그러는	-10.5877
▁脳	-10.5878
ゾ	-10.588
撃たれた	-10.588
思った	-10.5882
ときに	-10.5884
せた	-10.5884
▁いいね	-10.5885
助けて	-10.5887
容疑者	-10.5888
▁나아	-10.5889
▁연주	-10.5889
▁이해해	-10.5891
▁착한	-10.5891
버렸어	-10.5892
▁일본	-10.5893
쪽	-10.5893
▁좋아해	-10.5894
バル	-10.5895
信号	-10.5895
▁퍼	-10.5896
▁일어났	-10.5896
▁왔습니다	-10.5897
났	-10.5897
▁タイ	-10.5901
▁--	-10.5901
▁다니	-10.5902
▁범인이	-10.5904
▁입을	-10.5904
牛	-10.5904
ビジネス	-10.5904
掃除	-10.5904
障害	-10.5905
▁가득	-10.5905
▁물론이지	-10.5912
▁뿐이에요	-10.5913
▁수업	-10.5913
혼	-10.5914
長く	-10.5915
▁놀라	-10.5915
事がある	-10.5915
突き	-10.5915
▁도망치	-10.5916
歩いて	-10.5917
▁그럼요	-10.5919
探し	-10.5919
▁奴	-10.592
ピン	-10.5921
▁ケ	-10.5927
선을	-10.5927
▁時々	-10.5928
▁コーヒー	-10.5928
▁私たちが	-10.5929
▁털	-10.5929
▁건너	-10.5932
▁僕に	-10.5932
▁운영	-10.5934
▁죄	-10.5935
いてくれ	-10.5939
100	-10.594
▁계약	-10.5943
▁소식이	-10.5944
連れて	-10.5945
▁왔는데	-10.5948
シア	-10.5948
ばいい	-10.5952
嬉しい	-10.5954
男の	-10.5954
話してる	-10.5954
▁돼지	-10.5956
も同じ	-10.5956
▁오기	-10.5956
▁인류	-10.596
トラック	-10.5961
ロボット	-10.5962
▁물건을	-10.5964
▁힘들어	-10.5965
력을	-10.5965
できません	-10.5965
▁目	-10.5967
▁生	-10.5969
▁출신	-10.5969
ウス	-10.597
자의	-10.5975
▁알리	-10.5975
놨어	-10.5976
이라니	-10.5976
▁그분	-10.5978
야만	-10.5979
しなければ	-10.5979
の部屋	-10.5979
恋人	-10.5979
使って	-10.598
って事	-10.598
生きてる	-10.5981
▁ここには	-10.5981
▁武器	-10.5982
離	-10.5982
破	-10.5984
▁사무실	-10.5988
▁임신	-10.599
▁취소	-10.5991
頼んだ	-10.5991
셨죠	-10.5992
상을	-10.5993
▁전사	-10.5994
▁공연	-10.5994
まい	-10.5996
手紙	-10.5996
▁敵	-10.5998
あれ	-10.6001
全ての	-10.6007
▁마크	-10.6007
하다고	-10.6007
▁모르죠	-10.6007
ませんでした	-10.6008
▁面白い	-10.6008
▁생각할	-10.601
▁昔	-10.6011
馬鹿	-10.6013
▁It	-10.6013
ハン	-10.6016
分かって	-10.6017
にしろ	-10.6017
にあった	-10.6018
▁딸을	-10.6019
▁대니	-10.6021
テン	-10.6021
▁끼	-10.6022
▁같은데요	-10.6024
圧	-10.6026
着いた	-10.6028
工場	-10.6028
▁없으니까	-10.6028
있다	-10.603
を作った	-10.6034
言える	-10.6034
過去	-10.6038
벨	-10.6046
▁彼らを	-10.6047
距離	-10.6048
大きい	-10.6048
▁ようこそ	-10.6048
待つ	-10.6049
任	-10.605
셔야	-10.6051
▁해보	-10.6052
まえ	-10.6052
▁口	-10.6055
▁당연하지	-10.6057
に見える	-10.6057
人も	-10.6057
▁처음부터	-10.6059
▁루시	-10.606
▁いいや	-10.6062
重要な	-10.6072
▁can	-10.6074
▁뭐라고요	-10.6075
首を	-10.6077
▁흥분	-10.6077
▁추락	-10.6079
▁택시	-10.6079
▁奴が	-10.6081
値	-10.6081
オー	-10.6081
警告	-10.6082
正確に	-10.6083
二つ	-10.6083
仕事だ	-10.6085
▁말했잖아	-10.6086
▁않게	-10.6089
▁아니오	-10.6092
酒	-10.6092
もだ	-10.6093
バッグ	-10.6095
する事	-10.6097
▁왼쪽	-10.6097
なかったの	-10.6097
▁의도	-10.6098
▁달라고	-10.6101
0	-10.6103
▁빠지	-10.6103
行くわ	-10.6106
総	-10.6106
▁찾기	-10.6106
▁헛소리	-10.6106
らなかった	-10.6109
ay	-10.611
▁말로는	-10.611
パイ	-10.6112
..."	-10.6114
스티	-10.6117
▁쉽지	-10.6119
は誰	-10.6119
残念	-10.612
▁최선	-10.6123
▁능력을	-10.6124
サイン	-10.6126
▁자네도	-10.6127
받	-10.6131
택	-10.6131
▁犯人	-10.6131
デート	-10.6133
▁道	-10.6134
乱	-10.6134
造	-10.6134
話は	-10.6135
▁奴ら	-10.6137
なかったら	-10.6138
▁not	-10.6139
▁携帯	-10.6141
▁활동	-10.6142
▁제인	-10.6143
▁사회	-10.6143
▁필요하다	-10.6143
▁고맙다	-10.6145
▁착	-10.6151
▁죽이려	-10.6151
間違ってる	-10.6155
ィ	-10.6156
대를	-10.6156
▁쪽으로	-10.6157
▁後ろ	-10.6161
▁普通	-10.6162
チェ	-10.6162
▁바꿀	-10.6165
通りに	-10.6165
몬	-10.6165
▁was	-10.6166
返す	-10.6166
▁だめ	-10.6166
▁彼らに	-10.6167
まる	-10.617
▁죽었다	-10.6171
▁설	-10.6173
ヒル	-10.6174
▁急	-10.6177
青	-10.6178
寝る	-10.6178
たのか	-10.6178
▁배를	-10.6179
みた	-10.618
時間は	-10.6181
채	-10.6182
▁그걸로	-10.6183
▁방향	-10.6186
については	-10.6186
▁理解	-10.6188
神父	-10.6189
▁아닌가	-10.6189
▁여자애	-10.6189
▁내놔	-10.619
▁거냐	-10.619
▁평범한	-10.6194
相談	-10.6194
法律	-10.6194
ダンス	-10.6197
んでる	-10.6198
あげ	-10.6201
して下さい	-10.6202
▁ぼく	-10.6203
盗んだ	-10.6203
古い	-10.6205
例	-10.6206
포드	-10.6207
古	-10.6209
口座	-10.621
▁奥さん	-10.6211
ジェ	-10.6211
▁출	-10.6217
500	-10.6217
親	-10.6217
を救う	-10.6221
ゼ	-10.6221
億	-10.6221
▁곁에	-10.6222
▁데려오	-10.6223
▁재판	-10.6223
▁옳은	-10.6223
▁완료	-10.6223
交渉	-10.6223
練習	-10.6223
のことだ	-10.6224
伝えて	-10.6225
▁찾으러	-10.6225
▁놈들을	-10.6226
に入った	-10.6227
▁따로	-10.6228
▁코드	-10.6228
▁실종	-10.623
ウッド	-10.6231
▁국장님	-10.6233
▁못해요	-10.6236
▁No	-10.6237
タイム	-10.6239
内部	-10.624
▁私達の	-10.6241
▁오랜	-10.6247
▁二人	-10.625
했다면	-10.6252
▁로버트	-10.6253
▁바이러스	-10.6253
▁부를	-10.6254
るべき	-10.6257
▁속도	-10.6259
言えば	-10.6259
▁몰랐어요	-10.626
美	-10.6262
▁감옥	-10.6262
を知っている	-10.6263
▁시계	-10.6263
刑務所	-10.6264
将軍	-10.6264
▁ダニー	-10.6265
미터	-10.6267
▁気が	-10.6267
하기로	-10.627
間違い	-10.6271
▁メ	-10.6273
隠れて	-10.6274
満	-10.6274
割	-10.6275
▁상자	-10.6276
チェック	-10.6277
▁방송	-10.6278
ものが	-10.628
嫌	-10.628
탑	-10.6282
▁자넬	-10.6285
▁クリス	-10.6285
▁코너	-10.6286
撃て	-10.6286
友	-10.629
電話を	-10.6292
読み	-10.6292
マシ	-10.6293
▁대피	-10.6293
を殺して	-10.6296
東	-10.63
▁낮	-10.6303
▁직원	-10.6305
▁え	-10.6306
▁내려가	-10.6307
▁나가서	-10.6307
も無い	-10.6308
더라고	-10.6312
▁맞았	-10.6312
덴	-10.6312
指輪	-10.6312
주면	-10.6313
ホームズ	-10.6313
を助ける	-10.6314
親友	-10.6317
▁폐	-10.6319
すべての	-10.632
트리	-10.632
社会	-10.6321
生きて	-10.6322
▁공장	-10.6324
最初の	-10.6325
スパイ	-10.6329
▁あっち	-10.633
▁ところで	-10.633
であり	-10.6331
▁薬	-10.6332
▁증거를	-10.6334
▁먼	-10.6335
▁축하	-10.6337
▁곳은	-10.634
丸	-10.6341
▁걔가	-10.6342
名誉	-10.6342
ロイ	-10.6344
▁邪魔	-10.6345
関連	-10.6345
動く	-10.6345
느	-10.6345
なこと	-10.6346
▁계신	-10.6346
▁말이다	-10.6348
▁있겠죠	-10.6349
▁ウ	-10.6349
こちら	-10.6349
로스	-10.635
王子	-10.635
했나요	-10.635
▁놀아	-10.6351
팅	-10.6355
▁찾으면	-10.6358
可能	-10.6359
이지만	-10.6359
▁떠났	-10.6362
思ってる	-10.6364
▁뭐든지	-10.6364
▁세상에서	-10.6365
波	-10.6371
▁생각하고	-10.6371
▁계산	-10.6372
空港	-10.6373
▁부부	-10.6373
▁王	-10.6373
終わり	-10.6375
▁경계	-10.6376
全てを	-10.6377
話したい	-10.6379
トー	-10.6379
▁놓고	-10.6381
▁사울	-10.6383
▁최선을	-10.6385
▁토니	-10.6386
▁단어	-10.6386
▁아직은	-10.6388
▁같군요	-10.6389
당한	-10.6392
엘	-10.6393
▁b	-10.6393
▁레드	-10.6393
サム	-10.6394
たか	-10.6394
▁친구는	-10.6395
恐怖	-10.6397
▁말해주	-10.64
手がかり	-10.6402
▁떨어진	-10.6402
▁결코	-10.6403
▁고장	-10.6404
血液	-10.6405
混乱	-10.6405
ほうが	-10.6406
爆発	-10.6406
▁친구들이	-10.6407
▁火	-10.6408
ri	-10.641
▁팬	-10.6411
密	-10.6413
の世界	-10.6413
▁누나	-10.6413
狂	-10.6414
▁どちら	-10.6414
▁알았죠	-10.6417
팔	-10.642
▁끌고	-10.642
▁現実	-10.6421
▁했고	-10.6423
▁댁	-10.6424
ドラ	-10.6424
想	-10.6428
家を	-10.643
得意	-10.6433
▁향	-10.6436
▁증인	-10.6436
▁미안하다	-10.6438
▁당시	-10.6441
졌다	-10.6442
▁뛰	-10.6443
食べる	-10.6444
忙しい	-10.6445
▁끄	-10.6445
平気	-10.6446
居ない	-10.6448
▁悪魔	-10.6449
を見つけて	-10.6451
험	-10.6453
실에	-10.6453
身体	-10.6453
▁얘야	-10.6454
いで	-10.6456
덕	-10.6457
来てくれ	-10.6457
は死んだ	-10.6458
彼ら	-10.6458
▁彼女と	-10.646
豚	-10.6462
▁접속	-10.6462
すぎ	-10.6463
▁외계인	-10.6466
言わないで	-10.6468
に来て	-10.6472
하다니	-10.6473
行くんだ	-10.6477
▁목을	-10.6482
チャー	-10.6482
まって	-10.6485
ちょ	-10.6489
▁안으로	-10.649
싱	-10.6492
▁기다릴	-10.6492
▁트래비스	-10.6492
覚悟	-10.6492
▁기쁘	-10.6492
▁악몽	-10.6492
着陸	-10.6493
▁집어	-10.6498
▁따르	-10.65
最初に	-10.65
▁정상	-10.6501
▁인생	-10.6504
들한테	-10.6505
던데요	-10.6506
惑星	-10.6507
▁물어봐	-10.6511
▁〝	-10.6511
乗って	-10.6514
▁존스	-10.6515
最も	-10.6516
▁宇宙	-10.6517
▁고통을	-10.6518
絶	-10.652
話だ	-10.6521
違反	-10.6522
条件	-10.6522
▁하네	-10.6524
냈어	-10.6526
▁시민	-10.6528
볼까	-10.6531
U	-10.6532
あるか	-10.6532
▁사람들에게	-10.6535
▁入って	-10.6538
▁맡아	-10.654
他に	-10.6541
右	-10.6541
未	-10.6541
평	-10.6543
▁愛してる	-10.6544
장에	-10.6545
▁あった	-10.6548
川	-10.6549
いう	-10.6551
尋問	-10.6553
班	-10.6553
同僚	-10.6553
ベイ	-10.6553
通報	-10.6553
イー	-10.6554
▁공항	-10.6554
ニック	-10.6555
▁チャーリー	-10.6555
▁총알	-10.6557
世界を	-10.6558
したこと	-10.6559
臭い	-10.656
初	-10.6561
そうよ	-10.6565
▁몰랐어	-10.6566
▁꼴	-10.6567
残り	-10.6567
▁반장님	-10.6572
▁실례합니다	-10.6573
▁座って	-10.6574
できます	-10.6576
▁신이	-10.6576
▁할아버지	-10.6577
같이	-10.6577
▁없나	-10.6578
▁런던	-10.6579
▁임	-10.6579
▁도착	-10.6579
発生	-10.658
▁空	-10.658
ゆ	-10.658
生まれた	-10.6582
はずよ	-10.6583
決める	-10.6584
戦士	-10.6585
▁됐지	-10.6585
まずい	-10.6586
ますよ	-10.6588
聞いてくれ	-10.6589
▁고용	-10.6589
▁うちの	-10.6589
前から	-10.659
▁말입니다	-10.6591
▁_	-10.6592
▁가치가	-10.6593
のかい	-10.6595
おい	-10.6599
▁또한	-10.6602
▁휴	-10.6608
疑問	-10.661
탕	-10.661
追い	-10.661
お前を	-10.6613
欲しかった	-10.6614
▁의해	-10.6614
▁go	-10.6615
었고	-10.6615
運転	-10.6617
北	-10.662
軍隊	-10.662
口を	-10.662
▁남았어	-10.6624
問	-10.6627
▁결혼식	-10.663
▁俺には	-10.6631
通信	-10.6631
▁必要	-10.6631
됐습니다	-10.6632
는다	-10.6632
今は	-10.6633
▁飛行機	-10.6633
ニス	-10.6635
かれた	-10.6636
▁숨을	-10.6637
と言ってた	-10.664
▁구경	-10.6642
했거든	-10.6643
奴が	-10.6643
招待	-10.6644
内に	-10.6644
正しかった	-10.6645
大尉	-10.6645
打	-10.6646
テープ	-10.6646
▁천재	-10.6646
▁나면	-10.6647
置	-10.6648
▁그린	-10.665
째	-10.6653
第一	-10.6657
▁얼굴이	-10.6658
▁ボク	-10.6658
▁얼	-10.6659
じゃ無い	-10.6659
がいた	-10.6659
닐	-10.6659
▁貴方	-10.6661
▁연구실	-10.6663
자들	-10.6664
トップ	-10.6665
▁上手く	-10.6672
롤	-10.6674
▁얘기할	-10.6675
筋	-10.6675
▁えぇ	-10.6676
▁표현	-10.6676
▁저거	-10.6676
▁에밀리	-10.6676
▁떨어지	-10.6677
言葉を	-10.6677
장치	-10.6678
▁몰래	-10.6678
▁미래	-10.6679
▁一体何	-10.6679
▁言う	-10.6681
神経	-10.6682
▁뽑	-10.6685
取る	-10.6686
▁돌리	-10.6688
▁영상	-10.6688
西	-10.6692
▁움직이지	-10.6693
ファイ	-10.6693
リック	-10.6696
▁어젯밤에	-10.6696
▁기자	-10.6697
▁말인데	-10.6698
▁빛	-10.6698
れてる	-10.6699
▁마찬가지	-10.6702
▁하이	-10.6703
毛	-10.6704
慎	-10.6706
▁촬영	-10.6706
綺麗	-10.6706
▁늑대	-10.6706
▁보일	-10.6706
作業	-10.6708
▁틀렸	-10.6713
を探し	-10.6714
悪かった	-10.6714
▁숲	-10.6715
▁한다면	-10.6717
▁찾아서	-10.6718
▁최근에	-10.6718
▁일이지	-10.6719
▁부분	-10.6722
権利	-10.6722
世話	-10.6722
▁있을지도	-10.6725
事件の	-10.6727
目は	-10.6728
▁언젠가	-10.6728
는게	-10.673
▁자기야	-10.673
▁담	-10.6731
▁갔어요	-10.6732
둥	-10.6735
話そう	-10.6736
Y	-10.6736
▁파이	-10.6736
分析	-10.6737
駅	-10.6737
非常に	-10.6737
▁사이먼	-10.6739
だけじゃない	-10.6739
▁방문	-10.6739
▁ロンドン	-10.674
▁그렇지만	-10.6741
逃げて	-10.6742
▁나갔	-10.6743
▁단계	-10.6743
▁そんなの	-10.6744
残って	-10.6744
분이	-10.6749
ということ	-10.6751
▁그것이	-10.6752
▁赤ちゃん	-10.6752
▁일하고	-10.6753
▁문신	-10.6754
잖나	-10.6754
安全だ	-10.6754
▁完全に	-10.6755
ついてる	-10.6756
▁가자고	-10.6756
▁are	-10.6758
▁있네요	-10.6758
相	-10.6761
に会った	-10.6762
射	-10.6763
▁숨겨	-10.6763
▁問題は	-10.6764
次	-10.6765
ここから	-10.6768
▁옮겨	-10.6768
▁제이슨	-10.6768
▁なんて	-10.6769
働く	-10.6769
▁ふ	-10.6769
高校	-10.677
습	-10.677
の夜	-10.677
▁익	-10.6772
▁많아요	-10.6773
▁경찰서	-10.6775
の友人	-10.678
アパート	-10.6781
近	-10.6782
▁근처	-10.6784
▁생겼어	-10.6784
待ってる	-10.6786
▁현	-10.679
けて	-10.6792
▁今日の	-10.6794
ゲイ	-10.6795
森	-10.6795
は誰だ	-10.6797
▁히	-10.6798
になってる	-10.6798
▁あなた達	-10.6799
▁교도소	-10.6799
▁なるほど	-10.6799
のなら	-10.6801
撃	-10.6801
▁미치	-10.6801
▁아니었어요	-10.6802
近くに	-10.6802
規則	-10.6803
▁끝까지	-10.6806
▁물론이죠	-10.6807
돌	-10.6808
額	-10.681
▁들어와	-10.6812
レット	-10.6812
捕まえ	-10.6817
んでしょう	-10.6819
▁人類	-10.682
▁質問	-10.6821
이군요	-10.6822
ボーン	-10.6823
▁중이에요	-10.6824
극	-10.6824
▁못하는	-10.6829
=	-10.683
▁捜査	-10.6831
知らん	-10.6831
ポンド	-10.6832
▁돌아온	-10.6832
撃った	-10.6833
▁戻って	-10.6834
▁오후	-10.6838
愛してる	-10.6841
工	-10.6843
悪魔	-10.6844
▁받았어	-10.6846
つもりはない	-10.6847
分け	-10.6848
望	-10.685
やりたい	-10.6852
▁입장	-10.6852
ID	-10.6852
▁글쎄요	-10.6856
▁사라졌	-10.6858
ラス	-10.6858
am	-10.6859
▁トム	-10.6861
んだから	-10.6861
▁듣는	-10.687
▁검은	-10.687
▁지시	-10.687
方を	-10.6873
우리	-10.6873
▁身	-10.6874
▁貴方は	-10.6876
車で	-10.6878
했으면	-10.6879
▁봐도	-10.6879
▁지금도	-10.6884
▁위성	-10.6887
▁寝	-10.6888
を探して	-10.6888
▁뜻이야	-10.6888
▁방어	-10.6889
60	-10.689
シル	-10.6891
▁꼼짝	-10.6893
▁니키타	-10.6894
兵器	-10.6894
둬	-10.6895
▁진실	-10.6897
였습니다	-10.69
地図	-10.6903
▁공부	-10.6904
▁必要な	-10.6905
▁80	-10.6905
ネル	-10.6906
▁올게	-10.6906
▁아니라면	-10.6907
かない	-10.6908
危険な	-10.6909
魔法	-10.6911
思わない	-10.6911
赤ちゃん	-10.6911
覚えている	-10.6915
▁않을거야	-10.6919
端	-10.6923
▁잘못이	-10.6924
映	-10.6924
抵抗	-10.6925
組	-10.6926
土地	-10.6928
気を	-10.6928
被害者	-10.693
▁재미	-10.6932
そうだな	-10.6932
▁받아들이	-10.6932
▁이곳에	-10.6933
▁자리에	-10.6934
▁자연	-10.694
ドー	-10.6942
▁아빠를	-10.6945
로우	-10.695
탁	-10.695
▁싸움	-10.695
해라	-10.6951
第	-10.6952
さんが	-10.6954
넘	-10.6954
▁심지어	-10.6957
ヴェ	-10.6957
ギャ	-10.6957
参加	-10.6958
たちが	-10.6959
もんだ	-10.6959
難	-10.6959
装	-10.6963
話さない	-10.6963
▁공개	-10.6964
医師	-10.6964
▁됐죠	-10.6968
▁날이	-10.6969
もらえる	-10.6972
▁ヘ	-10.6972
ないから	-10.6974
負け	-10.6976
▁古い	-10.6977
▁밴	-10.6978
差し	-10.698
▁終わった	-10.698
▁행운을	-10.6981
は私の	-10.6982
하거나	-10.6986
来たの	-10.6987
▁当然	-10.6987
릿	-10.6988
▁바닥	-10.6988
▁What	-10.6988
▁with	-10.6988
▁인터뷰	-10.6988
気づいた	-10.6988
▁협상	-10.6989
▁계단	-10.6989
見つかる	-10.699
밖	-10.6991
不安	-10.6992
めた	-10.6993
▁안전하게	-10.6995
▁그와	-10.6997
でもある	-10.6997
の上	-10.6998
▁적도	-10.6998
▁쏠	-10.7003
精	-10.7003
▁가도	-10.7004
座って	-10.7008
▁비상	-10.7008
素敵	-10.7009
に入る	-10.7009
後で	-10.7012
▁휘	-10.7013
追	-10.7013
残る	-10.7016
▁앉아서	-10.7016
霊	-10.7017
使い	-10.7018
▁그랬어요	-10.7019
影	-10.702
▁현실	-10.7021
を与える	-10.7022
不思議	-10.7022
해봐	-10.7023
精神	-10.7024
成長	-10.7025
ジュリアン	-10.7026
▁있겠어	-10.7026
▁真実	-10.7027
▁불렀	-10.703
▁시장	-10.7031
行くよ	-10.7031
もね	-10.7032
▁씨발	-10.7033
▁화학	-10.7033
▁来る	-10.7034
▁さっさと	-10.7034
▁지점	-10.7035
으로서	-10.7035
▁変な	-10.7036
▁自分を	-10.7037
▁반가워요	-10.7042
ボー	-10.7042
▁정신이	-10.7043
▁南	-10.7044
▁문제야	-10.7047
향	-10.7047
다구요	-10.7047
わよね	-10.7048
ケン	-10.7048
▁때문이야	-10.7049
承知	-10.7052
▁町	-10.7053
▁물어	-10.7056
▁옛	-10.7058
에게서	-10.7059
ドゥ	-10.706
▁강한	-10.706
一人で	-10.7061
▁주의	-10.7063
キャ	-10.7064
▁고맙네	-10.7065
仲	-10.7065
▁신의	-10.7065
▁오해	-10.7072
▁무릎	-10.7074
례	-10.7079
존	-10.7079
▁없네요	-10.7084
贈り物	-10.7084
卒業	-10.7084
던지	-10.7085
しなきゃ	-10.7085
▁내려놔	-10.7086
▁시절	-10.7089
関係ない	-10.709
好きだ	-10.709
▁500	-10.7091
させろ	-10.7092
計画を	-10.7094
着く	-10.7096
건데	-10.7099
侵入	-10.7099
으로부터	-10.7101
付いて	-10.7104
▁全然	-10.7108
▁번도	-10.711
트로	-10.711
ところだ	-10.7113
入った	-10.7114
払う	-10.7115
あまり	-10.7116
딩	-10.7116
▁잃은	-10.7116
いると	-10.7116
▁스파이	-10.7117
と思うか	-10.7117
▁드릴	-10.7117
▁잡혀	-10.7117
▁있도록	-10.7119
▁無事	-10.7119
音楽	-10.7119
私達	-10.7121
ルド	-10.7122
▁같아서	-10.7124
評価	-10.7124
▁국	-10.7127
何をした	-10.7128
ります	-10.7128
会社の	-10.7129
▁진짜로	-10.7134
逃げる	-10.7135
▁どこだ	-10.7136
▁一つ	-10.7136
럴	-10.7138
▁밀어	-10.7141
▁ハン	-10.7141
▁살아남	-10.7143
▁사람에게	-10.7144
気にしない	-10.7145
▁공원	-10.7146
줘서	-10.7148
保険	-10.7149
くせに	-10.7149
試合	-10.7149
▁낙	-10.7152
▁아무튼	-10.7152
届け	-10.7153
에서도	-10.7154
言えない	-10.7154
▁질문이	-10.7155
出身	-10.7157
▁분노	-10.7157
ヴァ	-10.7159
▁색	-10.7163
▁자고	-10.7164
▁책을	-10.7165
見えた	-10.7165
今夜	-10.7165
方向	-10.7167
▁애나	-10.717
물이	-10.7171
▁이따	-10.7172
▁알려줘	-10.7174
始めて	-10.7175
▁많았	-10.7181
▁팔아	-10.7181
爆破	-10.7181
▁웰스	-10.7183
▁있었다고	-10.7184
더라도	-10.7184
▁누구한테	-10.7187
▁テレビ	-10.7187
▁シャ	-10.7188
一体	-10.7188
이잖아요	-10.7189
▁なんだ	-10.7191
じゃないの	-10.7192
▁정보가	-10.7194
24	-10.7197
▁なん	-10.7197
▁붙어	-10.7197
きます	-10.7198
스럽	-10.72
車を	-10.72
▁식당	-10.7202
▁닫	-10.7203
の前に	-10.7205
居場所	-10.7205
▁할까요	-10.7206
話せる	-10.7209
を取る	-10.7209
ーク	-10.721
▁하려는	-10.721
接	-10.7211
嵐	-10.7213
玉	-10.7213
파운드	-10.7213
▁생각했어	-10.7214
なくていい	-10.7216
所で	-10.7217
機械	-10.7217
▁땅	-10.7219
▁내내	-10.7219
착	-10.7221
やれる	-10.7222
▁자료	-10.7223
次の	-10.7224
▁教えて	-10.7225
▁ペ	-10.7225
▁これまで	-10.7226
▁대장	-10.7228
▁미쳤	-10.723
達は	-10.7232
かかった	-10.7232
だめ	-10.7232
▁예정	-10.7234
うれしい	-10.7235
鉄	-10.7236
戻り	-10.7237
살이	-10.7238
に乗って	-10.7238
ライン	-10.7239
▁はっきり	-10.7241
去った	-10.7241
かも知れない	-10.7246
▁何て	-10.7247
▁만나고	-10.7247
▁ジャ	-10.7247
▁파악	-10.7248
▁해고	-10.7249
▁있었을	-10.7249
ただの	-10.7249
▁걸렸	-10.7253
▁오세요	-10.7254
の名前	-10.7256
▁없다면	-10.7257
突	-10.7261
▁던져	-10.7263
一晩	-10.7263
우드	-10.7267
裂	-10.727
ユ	-10.727
▁来て	-10.7277
エネルギー	-10.7279
▁아름답	-10.7279
▁거면	-10.7279
▁いろいろ	-10.7282
ための	-10.7282
▁이걸로	-10.7285
越	-10.7287
の問題	-10.7292
の死	-10.7292
▁때부터	-10.7296
毒	-10.7298
▁爆弾	-10.73
セント	-10.7304
込め	-10.7305
特定	-10.7305
ヘ	-10.7306
▁될거야	-10.7307
した時	-10.7308
方法は	-10.731
▁君たち	-10.7311
罠	-10.7311
▁장비	-10.7312
없	-10.7313
▁맡겨	-10.7313
▁존경	-10.7315
▁도와주세요	-10.7316
▁높	-10.7316
▁해줄	-10.7316
▁女の子	-10.7319
▁즐기	-10.7322
▁몸에	-10.7323
▁이길	-10.7323
モー	-10.7325
▁했습니다	-10.7326
▁가치	-10.7327
▁둘은	-10.7328
カル	-10.7329
年前に	-10.7331
途中	-10.7332
▁모두에게	-10.7334
▁이것은	-10.7334
ドレス	-10.7336
術	-10.7338
▁뒀	-10.7339
育て	-10.734
▁줄까	-10.7341
を受け	-10.7341
▁ありがとうございます	-10.7343
▁実際に	-10.7344
▁줄리엣	-10.7344
▁지킬	-10.7346
以外	-10.7347
父さん	-10.7347
는거	-10.7347
▁내보내	-10.735
バイ	-10.735
ちゃう	-10.7352
▁죽음을	-10.7352
▁話を	-10.7355
か分からない	-10.7355
▁경찰은	-10.7355
▁自	-10.7356
長官	-10.7356
▁国	-10.7357
▁プロ	-10.7357
▁사라지	-10.7362
▁부하	-10.7363
起	-10.7363
▁심문	-10.7364
引っ	-10.7365
▁보고서	-10.7367
▁뜻이	-10.7367
フレ	-10.7372
▁さらに	-10.7374
起き	-10.7374
▁광	-10.7374
솔	-10.7376
▁희생자	-10.7376
납	-10.7376
으며	-10.7377
▁함정	-10.7378
去る	-10.7378
일세	-10.7379
일까	-10.738
ウォル	-10.738
▁それでは	-10.7382
▁뜨	-10.7382
▁환	-10.7382
▁인질	-10.7383
ペン	-10.7383
持っている	-10.7383
▁찾아봐	-10.7384
▁빠졌	-10.7387
대는	-10.7387
▁얘기하고	-10.7387
더라고요	-10.739
▁父は	-10.7391
▁しかも	-10.7393
▁좋아하지	-10.7399
▁누구죠	-10.74
側に	-10.7401
▁편이	-10.7402
▁兄	-10.7402
풀	-10.7402
혹	-10.7406
▁말했어	-10.7409
▁자가	-10.7409
草	-10.741
』	-10.741
復讐	-10.741
禁止	-10.741
欲しいの	-10.7411
失った	-10.7415
▁온다	-10.7415
▁극	-10.7415
▁おまえは	-10.7415
交	-10.7417
づ	-10.7419
▁개발	-10.742
▁話して	-10.7421
▁가족들	-10.7421
▁アンタ	-10.7424
▁임무를	-10.7425
平和	-10.7427
일지도	-10.743
지지	-10.7432
事になる	-10.7432
아서	-10.7432
▁친구야	-10.7433
▁짜	-10.7434
だれ	-10.7436
▁바닥에	-10.7438
▁입은	-10.7439
▁더러운	-10.7444
▁바쁘	-10.7444
▁넘겨	-10.7444
話が	-10.7445
言ってるの	-10.7447
ならば	-10.7449
▁지휘	-10.745
▁ブラック	-10.7453
▁알아낼	-10.7453
写真を	-10.7454
▁증거가	-10.7455
フラ	-10.7456
▁どうなってる	-10.7459
本部	-10.7461
まり	-10.7462
かなり	-10.7463
잖소	-10.7463
軍の	-10.7465
投げ	-10.7466
ごめん	-10.7466
聞いてる	-10.7466
▁수사관	-10.7471
てくれる	-10.7471
言わ	-10.7472
上げ	-10.7472
スコ	-10.7473
しているの	-10.7475
核	-10.7477
et	-10.7477
▁두려움	-10.7477
メイ	-10.7477
▁거니	-10.7478
変化	-10.7479
▁그룹	-10.7479
▁누구나	-10.7479
▁ピ	-10.748
▁自由	-10.748
過ぎる	-10.7481
何の	-10.7481
といい	-10.7482
▁僕を	-10.7483
▁계셨	-10.7484
▁곰	-10.7486
▁나누	-10.7487
▁가슴	-10.7487
▁떠난	-10.7487
▁先に	-10.7491
の顔	-10.7491
▁실제로	-10.7493
▁こちらは	-10.7495
겠군요	-10.7495
もいる	-10.7496
貴女	-10.7497
隠	-10.7497
は無理だ	-10.7497
窓	-10.7497
しく	-10.7497
널	-10.7499
▁거란	-10.75
プラ	-10.75
▁경관	-10.75
▁こんなこと	-10.7502
ミン	-10.7506
思	-10.7507
▁殺した	-10.7508
▁オーケー	-10.7509
▁알면	-10.7509
飛行	-10.751
▁色々	-10.751
ほ	-10.7513
信じない	-10.7514
週末	-10.7517
▁ジム	-10.7518
まず	-10.7519
▁조지	-10.7519
遠く	-10.7521
져서	-10.7522
▁있을거야	-10.7524
▁한다는	-10.7526
セックス	-10.7534
部下	-10.7537
▁명예	-10.7542
딘	-10.7544
卵	-10.7544
▁海	-10.7547
上司	-10.7547
▁농장	-10.7548
▁맡	-10.7548
近い	-10.7549
を知らない	-10.7552
▁ディ	-10.7552
になりたい	-10.7553
이트	-10.7554
向き	-10.7555
▁이후	-10.7557
▁そいつは	-10.7558
行きます	-10.7559
람	-10.7561
すら	-10.7562
▁兄弟	-10.7562
▁인터넷	-10.7562
を探してる	-10.7563
▁늦었	-10.7565
린다	-10.7568
으니까요	-10.7568
ファー	-10.757
했으니	-10.7573
用の	-10.7574
アップ	-10.7575
ネット	-10.7576
▁答え	-10.7577
▁똑바로	-10.7578
▁여동생	-10.7578
仕掛け	-10.7578
いいの	-10.7579
▁어떡해	-10.7579
▁コン	-10.7579
▁사촌	-10.758
キャンプ	-10.758
いき	-10.7581
▁펜	-10.7582
▁엉덩이	-10.7582
▁바라는	-10.7586
遠	-10.7587
함을	-10.7589
▁오직	-10.759
하시오	-10.7591
시고	-10.7592
▁やめ	-10.7592
聴	-10.7592
▁따라가	-10.7593
子供を	-10.7596
効果	-10.7597
▁犬	-10.7597
칼	-10.7599
を持ち	-10.7601
向け	-10.7601
▁봤지	-10.7602
ce	-10.7604
▁어디야	-10.7605
害	-10.7607
▁主	-10.7607
자마자	-10.7608
해줘	-10.7608
ライト	-10.7611
–	-10.7611
▁심각한	-10.7611
司令官	-10.7612
▁어렸을	-10.7612
▁여자친구	-10.7612
起こった	-10.7613
톤	-10.7613
뒀	-10.7615
キン	-10.7616
▁느낌	-10.7616
▁明らかに	-10.762
出口	-10.7621
▁생각나	-10.7622
▁주인님	-10.7622
時間だ	-10.7624
▁위험에	-10.7625
全く	-10.7628
人間は	-10.7629
▁만들었어	-10.763
▁가져왔	-10.7631
▁도둑	-10.7631
▁アンナ	-10.7632
もらって	-10.7634
▁オレは	-10.7636
▁다르	-10.7637
▁활	-10.7638
▁거래를	-10.7638
−	-10.7639
行けない	-10.7639
▁刑事	-10.764
楽しい	-10.7641
があり	-10.7642
健康	-10.7645
▁혈액	-10.7645
▁あるいは	-10.7646
イラ	-10.7649
タイプ	-10.7649
▁어머니가	-10.765
이라고요	-10.765
▁전력	-10.7651
▁죽음	-10.7652
▁의원	-10.7652
だからな	-10.7654
クター	-10.7655
있어요	-10.7657
▁줘서	-10.7657
▁쉽	-10.7661
隠れ	-10.7661
찰	-10.7661
大きく	-10.7662
장에서	-10.7666
▁암살	-10.7667
短	-10.7667
▁壁	-10.7668
을까요	-10.7669
の間に	-10.7669
ルート	-10.7673
▁警察に	-10.7675
跡	-10.7675
誤解	-10.7675
のための	-10.7678
▁싸워	-10.7678
怪物	-10.7679
渡す	-10.7679
えて	-10.768
主張	-10.7681
▁수밖에	-10.7682
▁지배	-10.7684
留	-10.7685
▁한자와	-10.7687
▁먹이	-10.7689
運	-10.7693
▁했다고	-10.7697
▁가능성이	-10.77
개의	-10.7701
았다	-10.7701
했거든요	-10.7702
オフィス	-10.7702
▁제발요	-10.7702
▁바란다	-10.7704
던가	-10.7707
やられた	-10.7708
▁방식	-10.7708
▁殺	-10.771
なのは	-10.7711
制	-10.7712
欠	-10.7712
년을	-10.7712
相棒	-10.7712
最後	-10.7713
▁가까운	-10.7713
使える	-10.7714
を失う	-10.7714
フィル	-10.7715
▁no	-10.7716
食べ	-10.7717
▁도망쳐	-10.7719
▁아파트	-10.7726
▁彼には	-10.7727
▁分かりました	-10.7728
▁칼을	-10.773
誰だ	-10.773
▁知らなかった	-10.7731
ハー	-10.7731
▁하니까	-10.7731
려고요	-10.7731
▁마찬가지야	-10.7731
覚えてる	-10.7732
りました	-10.7732
▁듯	-10.7733
▁있다고요	-10.7736
ましょ	-10.7738
▁낼	-10.7738
줄까	-10.7738
イカ	-10.7739
の前で	-10.7739
▁영웅이	-10.774
金庫	-10.7741
行くぞ	-10.7742
▁N	-10.7743
▁듣기	-10.7747
▁君達	-10.7747
Z	-10.7748
▁And	-10.7748
▁목록	-10.7749
済み	-10.775
▁조언	-10.7751
痛み	-10.7752
▁なぜなら	-10.7753
いいよ	-10.7755
かもな	-10.7755
▁트	-10.7755
▁그땐	-10.7756
目の	-10.7757
▁病気	-10.7757
風に	-10.7761
▁0	-10.7762
▁知っている	-10.7762
の件	-10.7764
セット	-10.7765
言いたい	-10.7766
試	-10.7766
不可能	-10.7768
▁않지	-10.7769
▁記憶	-10.777
겼	-10.7772
같	-10.7773
刺	-10.7773
▁전문	-10.7776
んですよ	-10.7778
何かを	-10.778
▁그곳	-10.778
フォード	-10.7781
▁인도	-10.7781
▁창녀	-10.7783
▁의회	-10.7784
DNA	-10.7784
봉	-10.7785
▁好きな	-10.7785
▁자네의	-10.7787
のかも	-10.7787
▁アラン	-10.7787
▁들어가서	-10.7789
▁현금	-10.779
デイ	-10.779
▁だめだ	-10.7794
▁ゲーム	-10.7795
▁로마	-10.7795
됩니다	-10.7795
▁왕자	-10.7796
▁않죠	-10.7802
▁죽으면	-10.7803
▁예전에	-10.7803
三	-10.7804
提供	-10.7805
▁監視	-10.7807
まして	-10.7809
休み	-10.7811
するのか	-10.7811
▁あたし	-10.7812
▁思った	-10.7814
脚	-10.7817
ヒュー	-10.7817
시키고	-10.7817
▁공주	-10.7819
頭を	-10.7819
▁보험	-10.7819
▁静かに	-10.782
中止	-10.7821
積	-10.7825
▁人間の	-10.7826
のかな	-10.7828
▁そろそろ	-10.783
서는	-10.7833
▁警備	-10.7833
▁하나는	-10.7835
男の子	-10.7836
イヤ	-10.7838
25	-10.784
目が	-10.7841
▁범죄자	-10.7842
▁행사	-10.7842
▁있단	-10.7843
により	-10.7849
と言ってる	-10.7849
極	-10.785
四	-10.7851
▁him	-10.7851
単純	-10.7851
トラブル	-10.7851
쟁이	-10.7852
▁죄송하지만	-10.7852
▁오늘밤	-10.7853
のもの	-10.7855
行ける	-10.7858
겠는데	-10.7858
▁엿	-10.7859
▁こんな事	-10.7859
っちゃ	-10.786
見つけ	-10.786
できて	-10.7862
로운	-10.7863
画	-10.7867
は違う	-10.7868
▁홀	-10.7868
핀	-10.787
見え	-10.7871
▁차례	-10.7872
必ず	-10.7874
▁애는	-10.7875
▁가질	-10.7875
▁本物の	-10.7876
▁지지	-10.7876
▁왔을	-10.7876
▁믿었	-10.7877
▁いいな	-10.7879
電話して	-10.7879
ようだな	-10.7883
葉	-10.7885
브라	-10.7887
총	-10.7887
信じ	-10.7887
느라	-10.789
ニュー	-10.789
▁학생	-10.7891
▁こんなの	-10.7894
▁リック	-10.7895
▁오래된	-10.7899
マイク	-10.79
▁끌어	-10.79
いたい	-10.7902
▁親	-10.7904
든가	-10.7907
アル	-10.7907
▁궁금해	-10.7908
▁오신	-10.7909
▁누군가를	-10.791
▁답	-10.7911
웨	-10.7911
ことです	-10.7912
▁발표	-10.7913
地球	-10.7913
枚	-10.7914
ホテル	-10.7915
▁教えてくれ	-10.7916
に会う	-10.7916
농	-10.7917
かって	-10.7917
참	-10.792
▁저기요	-10.7921
文字	-10.7921
飛ぶ	-10.7921
▁여섯	-10.7921
▁don	-10.7921
▁고문	-10.7921
つける	-10.7925
▁えっ	-10.7927
얼	-10.7927
▁すでに	-10.7928
▁줘야	-10.793
事態	-10.7931
が必要です	-10.7933
の手	-10.7934
省	-10.7937
W	-10.7939
コート	-10.7943
っけ	-10.7946
そうだった	-10.7949
みな	-10.795
▁命令	-10.7954
▁워싱턴	-10.7956
勉強	-10.7956
▁기뻐	-10.7958
▁버리고	-10.7961
を連れて	-10.7966
▁突然	-10.7969
面白い	-10.7973
切	-10.7975
▁드리	-10.7981
▁살인범	-10.7983
務	-10.7985
どうだ	-10.7986
▁숙	-10.7986
▁ロシア	-10.7987
드라	-10.7988
웰	-10.7988
▁않았을	-10.7988
▁봐서	-10.7989
▁끝날	-10.7992
▁침	-10.7995
賭け	-10.7995
▁그놈	-10.7996
▁만나러	-10.8001
▁기다려요	-10.8002
▁헛	-10.8002
▁重要な	-10.8005
▁가만	-10.8008
兄さん	-10.801
▁300	-10.8016
働き	-10.8016
▁베스	-10.802
寝て	-10.8022
▁줄은	-10.8024
▁助けてくれ	-10.8025
▁장군님	-10.8025
▁없으니	-10.8026
▁어려운	-10.8026
は何も	-10.8027
ダウン	-10.8028
▁どうでもいい	-10.8028
▁う	-10.803
どこか	-10.8034
c	-10.8034
▁비밀을	-10.8035
対処	-10.8037
▁他にも	-10.8037
▁찬	-10.8038
勝つ	-10.8041
▁동생이	-10.8045
▁나은	-10.8045
▁반응	-10.8047
様な	-10.8048
▁変	-10.8052
▁バス	-10.8052
トリック	-10.8054
ぇ	-10.8054
▁있었나	-10.8056
그래	-10.8056
▁緊急	-10.8056
ドニー	-10.8057
任せ	-10.806
▁생각보다	-10.8061
흐	-10.8061
▁느꼈	-10.8061
▁비디오	-10.8061
▁命	-10.8065
したいの	-10.8066
▁今回は	-10.8066
▁そこの	-10.8067
▁같았	-10.8067
▁マックス	-10.8068
▁生き	-10.807
こいつ	-10.807
正義	-10.8071
겠나	-10.8074
▁엄	-10.8078
▁왕국	-10.8079
コーヒー	-10.8082
▁사람과	-10.8082
パス	-10.8083
格	-10.8084
▁춤	-10.8084
思い出した	-10.8085
雇	-10.8088
▁저희가	-10.8088
▁ワシ	-10.8089
▁때려	-10.8089
ly	-10.8091
▁평	-10.8091
▁다녀	-10.8091
▁똑같	-10.8091
戻ってきた	-10.8092
멘	-10.8092
チュー	-10.8095
▁何度も	-10.8096
▁주사	-10.8096
실로	-10.8096
▁기꺼이	-10.8097
▁깜짝	-10.8097
▁태어나	-10.8097
文句	-10.8097
▁계좌	-10.8097
泥棒	-10.8097
권을	-10.8097
決断	-10.8097
▁일치	-10.8097
スは	-10.8098
▁진입	-10.8098
▁슈퍼걸	-10.8099
▁씨는	-10.81
▁마시고	-10.8105
と私は	-10.8106
シャツ	-10.8107
▁의무	-10.8107
▁사라진	-10.8107
ストン	-10.8108
すべてを	-10.8109
▁전쟁을	-10.8109
▁옆	-10.8111
方は	-10.8111
▁見ろ	-10.8112
▁영혼	-10.8112
▁지나가	-10.8114
自ら	-10.8114
そうと	-10.8115
합니까	-10.8118
勇敢	-10.8119
하겠다고	-10.812
なん	-10.812
200	-10.8122
▁生きて	-10.8127
冗談	-10.8127
才	-10.8131
▁프랑스	-10.8132
これが	-10.8133
el	-10.8134
▁누구지	-10.8134
▁트리	-10.8134
▁상담	-10.8134
▁ヤ	-10.8136
本当の	-10.8137
▁처리하	-10.8137
不明	-10.8142
物が	-10.8142
▁시간에	-10.8143
▁있군	-10.8143
勢	-10.8144
▁배가	-10.8144
▁끝이	-10.8144
였던	-10.8144
▁過去	-10.8146
に行こう	-10.8147
モノ	-10.8151
発表	-10.8151
シェ	-10.8154
▁やり	-10.8155
셨어	-10.8155
_	-10.8157
るために	-10.8157
ビデオ	-10.8158
▁스타	-10.8159
じゃないよ	-10.816
建物	-10.8162
期待	-10.8164
コー	-10.8164
伝える	-10.8165
▁信じて	-10.8165
予想	-10.8165
▁事故	-10.8166
▁차에서	-10.8168
▁품	-10.8168
▁짐승	-10.8169
非難	-10.8169
▁아픈	-10.8171
▁소문	-10.8172
▁アレク	-10.8173
人とも	-10.8175
わからん	-10.8178
絶対	-10.8182
▁容疑者	-10.8183
▁뉴	-10.8184
のまま	-10.8187
▁살아있는	-10.8188
キロ	-10.8189
▁빵	-10.819
▁생명	-10.8192
できるか	-10.8194
うまく	-10.8195
드는	-10.8197
▁환영	-10.8198
した事	-10.8198
▁ど	-10.8198
報告書	-10.82
트를	-10.8201
▁받았다	-10.8203
サービス	-10.8204
▁데리러	-10.8204
知識	-10.8204
▁여지가	-10.8206
判	-10.8208
▁誰の	-10.8209
だと思った	-10.821
言うこと	-10.821
▁頭を	-10.821
▁토미	-10.8211
님이	-10.8211
▁トラック	-10.8214
▁아이는	-10.8215
▁주시	-10.8215
▁물을	-10.8216
▁끌	-10.8218
▁되겠지	-10.8221
はこの	-10.8221
쓰	-10.8223
▁모임	-10.8224
▁팀이	-10.8229
が見える	-10.8233
▁손가락	-10.8234
랄	-10.8234
▁왔지	-10.8235
送る	-10.8237
巻き	-10.8238
▁銀行	-10.8239
下げ	-10.8239
かもしれん	-10.824
▁젊은	-10.8241
▁수천	-10.8243
▁아내를	-10.8244
▁의지	-10.8244
僕に	-10.8245
小屋	-10.8245
声を	-10.8246
▁大変	-10.8246
▁군인	-10.8247
注目	-10.8247
▁났어	-10.8249
▁부인이	-10.8252
▁どこへ	-10.8254
取った	-10.8255
한테서	-10.8255
킹	-10.8256
보지	-10.8257
仕事に	-10.8259
▁혐의	-10.826
▁信じ	-10.826
手が	-10.8261
하거든	-10.8261
隠し	-10.8262
いだ	-10.8266
▁차단	-10.8268
시아	-10.8269
給	-10.827
▁『	-10.8274
▁三	-10.8275
ight	-10.8275
コントロール	-10.8277
을지도	-10.8278
覚	-10.8279
▁よろしく	-10.8279
▁타이	-10.828
▁지불	-10.8281
ませんか	-10.8282
したと	-10.8283
▁근	-10.8285
ヘン	-10.8286
▁ここまで	-10.8287
▁おめでとう	-10.8289
▁鍵	-10.8291
殺され	-10.8293
줬으면	-10.8294
▁하잖아	-10.8297
▁유명	-10.8298
▁있어도	-10.8299
目で	-10.8299
年も	-10.83
▁안전해	-10.8301
▁밑에서	-10.8304
靴	-10.8304
決して	-10.8305
したかった	-10.8306
▁이메일	-10.8306
同意	-10.8308
知りません	-10.8309
▁죽는다	-10.8309
に居る	-10.8309
立つ	-10.8311
副	-10.8312
▁やぁ	-10.8313
興奮	-10.8314
▁창조	-10.8315
▁心配するな	-10.8317
버린	-10.8317
▁감염	-10.8317
老	-10.8317
▁똑같이	-10.8317
▁맛이	-10.8318
점이	-10.832
言うと	-10.8322
▁出来る	-10.8322
▁대화를	-10.8324
▁여기선	-10.8324
▁루이스	-10.8326
後ろ	-10.8326
悪夢	-10.8328
▁話し	-10.8329
学生	-10.8335
▁こっちに	-10.8336
▁과정	-10.8336
였고	-10.834
▁행	-10.834
구역	-10.8341
大事な	-10.8342
▁집안	-10.8342
スターク	-10.8343
엄	-10.8345
▁관해	-10.8347
話してくれ	-10.8348
▁굉장히	-10.8349
テーブル	-10.8349
待機	-10.8349
▁모릅니다	-10.8349
▁911	-10.8351
個人	-10.8351
▁말하자면	-10.8352
酷い	-10.8352
▁참아	-10.8352
▁돕고	-10.8353
停	-10.8354
▁싶어서	-10.8354
確信	-10.8354
▁주목	-10.8355
현	-10.8356
▁연락이	-10.8358
▁이해할	-10.836
ばかりだ	-10.8361
クラ	-10.8361
▁거부	-10.8362
▁부대	-10.8365
手の	-10.8366
▁생각에	-10.837
無理だ	-10.8372
降りて	-10.8373
消えて	-10.8373
問題が	-10.8373
礼	-10.8375
▁거절	-10.8377
최	-10.8377
出会った	-10.8379
▁常に	-10.8379
▁そうだろ	-10.838
▁희망	-10.838
聞か	-10.838
▁줬어	-10.8381
었습니다	-10.8381
▁待ってくれ	-10.8385
久しぶり	-10.8385
に関する	-10.8386
▁새벽	-10.8386
金持ち	-10.8387
시키는	-10.8387
▁별일	-10.8388
▁よくやった	-10.8392
중에	-10.8393
▁킹	-10.8394
手配	-10.8395
料	-10.8397
の人	-10.8398
言う事	-10.8399
の子	-10.8399
▁빼앗	-10.8401
▁中国	-10.8401
▁똑똑한	-10.8401
값	-10.8402
▁알아냈어	-10.8404
▁입어	-10.8404
테니	-10.8404
おけ	-10.8406
ッカー	-10.8407
▁불을	-10.841
▁誰でも	-10.8412
腹	-10.8415
さんの	-10.8415
ァ	-10.8417
▁ジ	-10.8417
▁확	-10.8419
▁알아봐	-10.8419
勝ち	-10.842
迫	-10.8421
印	-10.8421
▁사일런	-10.8422
炎	-10.8422
武装	-10.8422
ければ	-10.8422
帝国	-10.8422
▁형님	-10.8423
▁선생	-10.8424
▁확보	-10.8424
굴	-10.8424
歳の	-10.8426
地獄	-10.8427
▁있었습니다	-10.8427
スーツ	-10.8427
▁만에	-10.8427
の写真	-10.8427
▁생명을	-10.8429
努力	-10.8429
源	-10.843
選	-10.8433
▁아기를	-10.8434
▁끝나면	-10.8434
怒り	-10.8435
▁않는다면	-10.8437
정도	-10.8438
昔	-10.8441
左	-10.8443
▁警部	-10.8448
位置	-10.8448
メモ	-10.8452
▁목격자	-10.8452
昼	-10.8456
細	-10.8457
いてる	-10.8459
물을	-10.8459
▁현장에	-10.846
言ってない	-10.846
혔	-10.846
深く	-10.8464
約	-10.8466
▁데이터	-10.8467
軽	-10.847
しゃ	-10.8471
▁올리	-10.8472
▁싶을	-10.8473
▁송	-10.8478
▁시키는	-10.8478
袋	-10.8482
▁45	-10.8483
▁증명	-10.8483
▁22	-10.8484
状況を	-10.8485
▁말해요	-10.8486
大量	-10.8486
署	-10.8488
▁실례	-10.8489
▁あいつら	-10.849
買って	-10.8493
じゃないんだ	-10.8494
最終	-10.8495
▁멕시코	-10.8495
プレゼント	-10.8495
켄	-10.8495
撮影	-10.8495
将来	-10.8495
▁스탠	-10.8496
▁바랍니다	-10.8497
シェル	-10.8497
▁맡기	-10.8498
▁次に	-10.8498
▁大事な	-10.8499
サル	-10.8499
▁木	-10.85
失礼	-10.8503
しそう	-10.8504
バレ	-10.8504
刑務所に	-10.8504
▁각자	-10.8504
▁봐봐	-10.8505
付	-10.8505
警部	-10.8505
▁逃げる	-10.8506
各	-10.8506
▁바래	-10.8506
あるわ	-10.8507
クレ	-10.8511
▁갑시다	-10.8511
だったから	-10.8512
彼らの	-10.8513
▁今度	-10.8513
場所だ	-10.8513
▁궁금하	-10.8514
하겠죠	-10.8514
▁의사가	-10.8515
▁해치지	-10.8516
▁당신들이	-10.8517
ものです	-10.8518
▁엄마한테	-10.8518
▁犯罪	-10.8519
▁것으로	-10.8519
伝	-10.852
以上の	-10.852
봤어	-10.8524
▁경보	-10.8525
率	-10.8526
段	-10.8526
種の	-10.8529
▁北	-10.8531
指揮	-10.8532
応答	-10.8532
▁앨리스	-10.8532
企業	-10.8532
議論	-10.8533
▁왔네	-10.8534
▁아이리스	-10.8534
▁질문을	-10.8535
▁공격을	-10.8535
▁쉬운	-10.8535
▁ドイツ	-10.8537
▁그렇습니다	-10.8537
▁말해야	-10.8538
闘	-10.854
▁못하게	-10.854
携帯電話	-10.8541
▁신뢰	-10.8541
▁일인지	-10.8544
▁전원	-10.8546
になったら	-10.8547
▁그렇군요	-10.8548
▁確認	-10.8548
▁取引	-10.8549
▁세상은	-10.8549
▁開け	-10.8551
▁이것도	-10.8551
つけて	-10.8552
▁할거야	-10.8552
▁알잖아요	-10.8553
信じる	-10.8556
▁ジョージ	-10.8558
▁강력	-10.856
▁어쩌다	-10.8561
귀	-10.8562
注文	-10.8563
返して	-10.8565
警備	-10.8565
ブー	-10.8566
ブロック	-10.8566
が出る	-10.8566
ボン	-10.8566
機関	-10.8567
▁효과가	-10.8569
▁前に	-10.8569
からよ	-10.8573
▁약속을	-10.8574
に入って	-10.8574
푸	-10.8575
次第	-10.8575
思い出す	-10.8576
▁느껴	-10.8587
▁안정	-10.8588
の下に	-10.8588
▁있을지	-10.8591
教会	-10.8591
鳴	-10.8593
▁클	-10.8593
一度	-10.8594
▁좋겠다	-10.8594
하곤	-10.8595
▁スパイ	-10.8596
▁昔の	-10.8598
▁아니잖아요	-10.8601
▁하시	-10.8603
グラ	-10.8603
▁たった	-10.8604
そんなこと	-10.8604
まあ	-10.8605
▁窓	-10.8606
▁드래곤	-10.8607
授業	-10.8607
するつもり	-10.8607
▁데려갈	-10.8607
▁가기	-10.8608
▁포함	-10.8608
具合	-10.8611
▁일부러	-10.8612
▁전까지	-10.8613
特別な	-10.8613
を見せて	-10.8614
▁빠진	-10.8616
견	-10.8616
▁マーク	-10.8617
と一緒	-10.8618
었잖아	-10.8619
▁動くな	-10.862
▁気をつけて	-10.862
ra	-10.8621
▁시체를	-10.8621
あるの	-10.8621
▁조이	-10.8621
▁부자	-10.8623
あげて	-10.8625
を作って	-10.8629
▁위장	-10.8629
▁봤을	-10.863
없는	-10.8632
奥さん	-10.8633
▁황	-10.8633
▁연락해	-10.8634
▁このまま	-10.8635
▁오른쪽	-10.8635
の仲間	-10.8635
▁볼까	-10.8638
닥	-10.864
▁텐데요	-10.864
なしで	-10.864
▁죽였어요	-10.8641
▁이론	-10.8643
かかって	-10.8644
お願いします	-10.8644
いいんだ	-10.8645
天使	-10.8646
▁ベル	-10.8646
フォ	-10.8648
大好き	-10.8648
▁구멍	-10.8649
の血	-10.8649
▁걸린	-10.865
사항	-10.8652
▁나보다	-10.8653
▁ルー	-10.8654
▁대표	-10.8656
처럼요	-10.8657
▁강력한	-10.8657
の娘	-10.8658
▁すいません	-10.8661
▁いいよ	-10.8662
だったな	-10.8664
の下	-10.8666
艦	-10.8668
働いて	-10.8669
判った	-10.867
会いたい	-10.8671
いけ	-10.8672
週	-10.8673
▁約束する	-10.8673
を与え	-10.8674
▁어떻게든	-10.8677
係	-10.8682
▁싶다면	-10.8682
변	-10.8683
▁자세히	-10.8683
回収	-10.8683
▁기밀	-10.8685
手に入れた	-10.8686
▁메시지를	-10.8687
関心	-10.8689
はいけない	-10.8693
감이	-10.8694
時間で	-10.8698
▁이상해	-10.87
▁맞서	-10.8701
脱出	-10.8702
置き	-10.8702
▁기다리는	-10.8703
世界の	-10.8704
▁どういう意味	-10.8704
を聞いた	-10.8708
操	-10.8712
▁개자식	-10.8712
失敗した	-10.8713
▁처음으로	-10.8713
簡単	-10.8716
の情報	-10.8716
特別	-10.8717
▁ラン	-10.8718
変わり	-10.8718
▁まずは	-10.8718
閉じ	-10.8719
糞	-10.8719
▁푸	-10.8719
▁what	-10.872
閉鎖	-10.872
空気	-10.872
▁유전자	-10.8723
▁평소	-10.8724
最初	-10.8724
▁나빠	-10.8725
代わり	-10.8725
だけの	-10.8725
▁楽しい	-10.8726
▁배달	-10.8726
▁아닌가요	-10.8727
死体	-10.8728
読んだ	-10.8732
▁오셨	-10.8732
▁해치	-10.8732
▁アイ	-10.8733
らせ	-10.8734
▁뭐요	-10.8734
▁魔法	-10.8735
女は	-10.8736
▁何なの	-10.8738
했었어	-10.8739
▁バン	-10.8739
▁실수를	-10.8741
ンズ	-10.8742
近く	-10.8744
▁애들은	-10.8744
降	-10.8745
類	-10.8745
分の	-10.8746
移	-10.8747
僕を	-10.8748
▁들었다	-10.875
滅	-10.875
▁神の	-10.8751
▁무엇	-10.8752
をしてる	-10.8752
ことはできない	-10.8753
▁케이	-10.8753
▁普通の	-10.8755
見たい	-10.8755
砂	-10.8757
▁훔친	-10.8758
➡	-10.8758
ご存知	-10.8758
▁남자친구	-10.8758
▁넘기	-10.8759
そうね	-10.8759
▁刑務所	-10.876
住	-10.8761
▁来た	-10.8761
▁헬기	-10.8761
▁本当は	-10.8762
lo	-10.8764
▁사격	-10.8764
▁조종사	-10.8765
지요	-10.8766
▁하던	-10.8766
하겠네	-10.8767
▁それって	-10.8769
▁휴가	-10.8769
デル	-10.8769
金は	-10.8771
病院	-10.8771
止めて	-10.8771
されない	-10.8773
▁女王	-10.8773
たいんだ	-10.8776
考えている	-10.8776
責め	-10.8777
번째	-10.8777
まし	-10.8778
찬	-10.8778
いいですか	-10.8779
척	-10.8779
呼ぶ	-10.8782
終わらせ	-10.8783
▁이혼	-10.8783
噂	-10.8784
▁時間が	-10.8785
▁정보원	-10.8786
確かめ	-10.8786
▁하라고	-10.8787
使った	-10.8788
▁一人で	-10.8793
策	-10.8795
▁주님	-10.8795
作って	-10.8795
ネズミ	-10.8796
▁한마디	-10.8796
▁되잖아	-10.8796
▁車を	-10.8797
シティ	-10.8797
を持った	-10.8797
リーン	-10.8798
▁괴물이	-10.8799
教えた	-10.88
▁아가	-10.8802
を確認	-10.8802
お話	-10.8802
▁모른다고	-10.8804
われた	-10.8805
지마	-10.8805
▁전송	-10.8806
주게	-10.8806
▁見つけ	-10.8806
ホー	-10.8807
自由に	-10.8808
▁オリビア	-10.8809
からです	-10.8811
汚い	-10.8814
▁않나	-10.8815
▁표시	-10.8817
▁マジ	-10.8818
無実	-10.882
っていう	-10.8821
▁사람이에요	-10.8822
速く	-10.8823
▁사장	-10.8823
하오	-10.8824
감을	-10.8825
効	-10.8826
▁좋겠어요	-10.8826
▁총이	-10.8827
そういう	-10.8827
▁거짓	-10.883
きっと	-10.8832
▁조심하	-10.8833
株	-10.8833
鏡	-10.8834
アイデア	-10.8834
喧嘩	-10.8834
離婚	-10.8834
慎重	-10.8834
暴	-10.8835
たくて	-10.8835
▁신분증	-10.8837
▁生きてる	-10.8837
殺人犯	-10.8837
▁唯一の	-10.8839
触	-10.884
ケース	-10.8841
▁ジェシー	-10.8842
をお	-10.8842
▁간에	-10.8844
▁보석	-10.8845
▁잘라	-10.8848
いるわ	-10.8848
ルズ	-10.8849
返事	-10.8849
▁サー	-10.8852
送った	-10.8854
関	-10.8858
▁믿으	-10.8858
ああ	-10.8859
ひとつ	-10.886
ルール	-10.886
固	-10.8862
▁맛있	-10.8865
▁하나를	-10.8866
▁이웃	-10.8868
▁관심이	-10.8868
▁모두들	-10.8868
スキー	-10.887
▁젖	-10.8871
ボート	-10.8872
煙	-10.8872
▁아줌마	-10.8872
섰	-10.8872
見つからない	-10.8872
終了	-10.8872
▁기름	-10.8875
▁나가는	-10.8876
으라고	-10.8876
チン	-10.8877
死の	-10.8878
名前を	-10.8879
▁되었	-10.888
謎	-10.8881
▁에너지	-10.8881
▁케이트	-10.8882
けどね	-10.8884
▁모르겠	-10.8885
狂った	-10.8885
니깐	-10.8885
▁싶은데	-10.8887
私も	-10.8888
する必要がある	-10.8889
▁確か	-10.889
王国	-10.889
とう	-10.8892
指紋	-10.8895
ねば	-10.8895
▁감정을	-10.8898
念	-10.8903
▁고쳐	-10.8904
▁전에도	-10.8905
▁ママは	-10.8905
ブレ	-10.8906
御	-10.8907
▁持ち	-10.8909
▁쏘지	-10.891
毎日	-10.891
予約	-10.8911
▁모델	-10.8912
好きに	-10.8912
現場	-10.8912
▁あれが	-10.8912
▁모리스	-10.8913
▁감방	-10.8914
▁まさに	-10.8917
るように	-10.8917
してたの	-10.8918
하는지	-10.8919
動か	-10.8919
금을	-10.8921
▁북부	-10.8922
▁どこにいる	-10.8923
になるの	-10.8923
▁기관	-10.8923
違います	-10.8925
▁最初は	-10.8927
ヴィン	-10.8927
ちゃった	-10.8927
▁무섭	-10.8928
選択肢	-10.8928
頼	-10.8928
送って	-10.8929
を撃った	-10.8931
▁배웠	-10.8931
これで	-10.8934
할까요	-10.8936
囚人	-10.8936
起きた	-10.8937
自分を	-10.8942
分かってない	-10.8945
▁おいで	-10.8945
真実を	-10.8947
▁たとえ	-10.8947
▁나가야	-10.8947
▁하셨	-10.8948
징	-10.8948
롱	-10.8949
▁例えば	-10.8949
奇跡	-10.8949
▁十分	-10.895
▁중단	-10.895
▁相棒	-10.895
▁ここから出	-10.8951
パワー	-10.8951
程度	-10.8952
▁진심으로	-10.8954
るから	-10.8956
せば	-10.8959
▁おっと	-10.8959
艦隊	-10.8963
市場	-10.8963
▁お願いだ	-10.8964
▁전체	-10.8964
たり	-10.8965
証人	-10.8965
するぞ	-10.8967
▁석	-10.8969
▁誰かに	-10.8969
▁하지마	-10.8972
消える	-10.8975
줘야	-10.898
▁기억을	-10.8982
するため	-10.8983
▁가져다	-10.8985
はいい	-10.8986
時期	-10.8986
反対	-10.8988
▁옮기	-10.8988
▁뼈	-10.8988
故郷	-10.8988
▁동료들	-10.8988
危機	-10.8988
フラッシュ	-10.8988
内容	-10.8989
▁나눠	-10.8989
▁맘대로	-10.8989
生徒	-10.8989
었네	-10.899
▁아시	-10.8992
お母さん	-10.8992
感じた	-10.8996
▁보안관	-10.8997
▁싶다고	-10.8997
▁逆	-10.8998
▁넘어가	-10.8998
プリ	-10.8999
▁あの男	-10.9001
드릴	-10.9002
理由を	-10.9002
ったんだ	-10.9004
殺せ	-10.9007
完全に	-10.9008
▁전화가	-10.9008
ロス	-10.9009
▁사람들도	-10.9011
▁ライアン	-10.9011
희	-10.9016
ラム	-10.9016
歩き	-10.9018
男を	-10.902
야겠다	-10.9021
歓迎	-10.9022
▁実	-10.9022
を信じる	-10.9023
養	-10.9024
▁잡지	-10.9025
주실	-10.9025
과는	-10.9025
▁お前たち	-10.9025
厳しい	-10.9027
亡くなった	-10.9028
▁キャリー	-10.9028
にでも	-10.9028
ロード	-10.9028
▁행복	-10.9029
犠牲者	-10.9029
▁イヤ	-10.903
▁조작	-10.9031
이었는데	-10.9031
米	-10.9032
▁忘れ	-10.9032
▁있고요	-10.9034
詳細	-10.9036
▁トイレ	-10.9036
▁カル	-10.9036
ましたか	-10.904
▁떨어졌	-10.9043
▁알아냈	-10.9043
つかない	-10.9044
▁怖い	-10.9047
されてた	-10.9047
▁그만두	-10.9047
▁잡았어	-10.9048
生命	-10.9049
場合は	-10.9053
▁경찰을	-10.9054
読んで	-10.9054
▁올라	-10.9055
覚えてない	-10.9055
수를	-10.9055
▁일정	-10.9057
やってくれ	-10.9059
▁僕らは	-10.9059
タス	-10.9059
▁あなた方	-10.9061
▁슈퍼	-10.9063
는거야	-10.9064
いますか	-10.9065
呼吸	-10.9066
▁저렇게	-10.9066
孤独	-10.9066
くなった	-10.9066
▁테이프	-10.9066
航空	-10.9066
대가	-10.9067
▁효과	-10.9067
▁불안	-10.9067
▁신세	-10.9068
▁리퍼	-10.9069
▁말씀이	-10.907
▁아니니까	-10.9071
▁손상	-10.9072
の力	-10.9072
▁관련된	-10.9072
할거야	-10.9073
▁기록을	-10.9073
▁없나요	-10.9073
▁エディ	-10.9074
フォー	-10.9076
▁협조	-10.9076
太	-10.9081
を愛してる	-10.9082
▁l	-10.9083
▁이어	-10.9085
▁견	-10.9086
▁どれだけ	-10.9088
▁행동을	-10.9089
眠	-10.9089
상의	-10.909
▁정도는	-10.9092
▁어딘가에	-10.9093
庭	-10.9096
ミニ	-10.9098
テレビ	-10.9099
필	-10.9099
を殺し	-10.91
▁전달	-10.91
費	-10.91
▁미국인	-10.9101
▁설명할	-10.9101
所有	-10.9102
▁빨간	-10.9102
▁좋네요	-10.9102
ひとり	-10.9103
ではなかった	-10.9103
▁한데	-10.9104
▁やめてくれ	-10.9104
▁가스	-10.9105
▁차라리	-10.9105
▁화이트	-10.9106
▁そうすれば	-10.9107
▁そこから	-10.9107
▁빨	-10.9108
▁맘	-10.9108
▁섞	-10.9109
▁腕	-10.9109
与え	-10.9111
▁どういうこと	-10.9112
ウム	-10.9114
奴等	-10.9114
荒	-10.9115
多い	-10.9117
あれば	-10.9117
거다	-10.9117
▁この件	-10.9118
過ぎた	-10.912
てやる	-10.912
マル	-10.9122
▁영향을	-10.9122
▁どう思う	-10.9123
バンド	-10.9123
▁子供たち	-10.9126
▁처음엔	-10.9126
誕生日	-10.9126
目撃者	-10.9126
驚き	-10.9128
따	-10.9131
▁ティ	-10.9132
後ろに	-10.9132
出血	-10.9135
らせて	-10.9136
▁줬어요	-10.9136
▁모아	-10.9137
셨나요	-10.9137
ジン	-10.9137
▁話す	-10.9139
どうなる	-10.9141
▁歴史	-10.9143
ないでくれ	-10.9143
▁비슷한	-10.9144
▁아무래도	-10.9144
対応	-10.9145
▁ジェーン	-10.9145
▁映画	-10.9146
自信	-10.9148
▁와인	-10.9149
▁댄	-10.9149
▁좋습니다	-10.915
▁학교에	-10.915
足を	-10.915
암	-10.9151
▁찰스	-10.9155
止	-10.9161
▁聞く	-10.9162
逃	-10.9163
봤어요	-10.9164
드리죠	-10.9164
床	-10.9164
▁받아야	-10.9165
▁달러를	-10.9167
▁白	-10.9167
とおり	-10.9168
奇妙な	-10.917
ナイ	-10.9172
ワー	-10.9175
▁뽑아	-10.9175
上げて	-10.9176
続き	-10.9176
路	-10.9176
▁조건	-10.9176
▁誰だ	-10.9182
ドロイド	-10.9184
스의	-10.9184
▁궁	-10.9185
そこにいる	-10.9185
私たちは	-10.9185
独り	-10.9186
▁의료	-10.9187
ごと	-10.9188
知りたい	-10.9188
좋	-10.9189
▁버릴	-10.919
▁고생	-10.919
いるのは	-10.919
メス	-10.9191
▁次	-10.9191
▁馬	-10.9193
▁アア	-10.9194
最大の	-10.9194
했었지	-10.9196
考えてた	-10.9196
▁번이나	-10.9198
자들이	-10.9201
했었죠	-10.9207
▁찍어	-10.9207
된다	-10.9209
하겠어	-10.9209
▁다음은	-10.9211
▁病院	-10.9213
▁パパは	-10.9213
落ちた	-10.9214
更	-10.9214
▁23	-10.9216
▁뭔데요	-10.9216
▁사람한테	-10.9217
調子	-10.9221
▁嫌	-10.9221
安定	-10.9221
はどこに	-10.9223
雪	-10.9224
▁수많은	-10.9224
岩	-10.9224
▁전화번호	-10.9224
知ってるの	-10.9224
▁인형	-10.9226
▁보스턴	-10.9226
片	-10.9227
▁아만다	-10.9227
▁루크	-10.9229
▁얼음	-10.923
▁戦い	-10.9232
▁奴を	-10.9233
興味	-10.9234
思って	-10.9234
強盗	-10.9237
ようとした	-10.9238
嫌な	-10.924
받은	-10.924
▁ヤツ	-10.9241
少	-10.9241
手術	-10.9244
を止める	-10.9245
▁何処	-10.9245
▁사라져	-10.9245
▁다음엔	-10.9246
飲んだ	-10.9246
国民	-10.9247
▁スーツ	-10.925
▁考えて	-10.9251
▁상태가	-10.9257
罪を	-10.9259
水を	-10.9259
▁ホント	-10.926
変わらない	-10.926
釈放	-10.9263
妨害	-10.9263
警戒	-10.9263
▁닥터	-10.9264
▁너네	-10.9264
残ってる	-10.9264
▁필립	-10.9265
▁here	-10.9266
▁총에	-10.9267
▁대답해	-10.9267
有罪	-10.9267
▁영광	-10.9268
見つけて	-10.9268
の準備	-10.9269
▁똑같아	-10.9274
を選んだ	-10.9276
▁少年	-10.9276
女が	-10.9277
▁자백	-10.9278
▁チャ	-10.9279
▁赤	-10.9281
知り合い	-10.9281
▁싶었어요	-10.9282
男に	-10.9282
黒	-10.9282
▁그렇겠지	-10.9285
▁맞았어	-10.9285
半分	-10.9287
▁물리	-10.9287
魔女	-10.9291
泊	-10.9292
影響	-10.9292
▁腹	-10.9299
一方	-10.9299
▁覚えてる	-10.9299
を変える	-10.93
기엔	-10.9301
警報	-10.9303
近づく	-10.9304
間違った	-10.9305
▁쿠	-10.9305
保証	-10.9306
▁동기	-10.9306
위를	-10.9306
▁슈트	-10.9306
관이	-10.9307
▁クラ	-10.9307
帰った	-10.9309
様子	-10.9309
▁리버	-10.9311
▁박사가	-10.9311
の車	-10.9313
▁절차	-10.9313
お前に	-10.9318
▁매기	-10.9318
못	-10.9319
おいて	-10.932
▁빌려	-10.932
▁食事	-10.9321
お金を	-10.9321
▁술집	-10.9322
ーズ	-10.9322
▁보트	-10.9322
つぶ	-10.9324
▁했나	-10.9326
地区	-10.9331
▁추가	-10.9331
▁곡	-10.9331
▁배치	-10.9332
▁광고	-10.9334
収	-10.9335
▁당했	-10.9339
切る	-10.9339
▁아버지의	-10.9339
욕	-10.934
やるよ	-10.934
▁再	-10.9342
起動	-10.9342
▁이끌	-10.9343
肩	-10.9344
▁소중한	-10.9344
▁물질	-10.9344
なので	-10.9345
▁선거	-10.9345
戻せ	-10.9346
作品	-10.9346
通じ	-10.9347
▁アイツ	-10.9347
生物	-10.9347
チョ	-10.9347
行きたい	-10.9349
に連絡	-10.9349
はいつも	-10.9349
殺し屋	-10.935
▁お前には	-10.9355
飛んで	-10.9355
尻	-10.9356
▁능력이	-10.9358
最後に	-10.936
잘	-10.9364
▁묵	-10.9364
すごく	-10.9366
▁彼も	-10.9366
황	-10.9366
▁キ	-10.9368
▁간다고	-10.9369
▁영어	-10.937
見てない	-10.9372
るのが	-10.9373
▁저놈	-10.9373
▁창고	-10.9375
▁기소	-10.9377
▁レッド	-10.9377
틴	-10.9377
▁있으	-10.9379
車は	-10.938
▁싸우는	-10.9383
x	-10.9383
▁연구소	-10.9387
犯行	-10.9387
の名	-10.9387
狙い	-10.9389
ウェイ	-10.9391
▁위험을	-10.9391
嘘つき	-10.9391
콘	-10.9392
正直	-10.9394
案内	-10.9394
▁카일	-10.9394
▁전화기	-10.9394
▁신호를	-10.9396
紹介	-10.9398
▁目を	-10.94
ドアを	-10.9401
▁정체	-10.9403
▁보여줄	-10.9403
作る	-10.9406
▁ダニエル	-10.9407
やがった	-10.9407
際	-10.9407
ってくれ	-10.9408
▁부정	-10.9408
鼻	-10.9409
理解できない	-10.941
▁명을	-10.941
したが	-10.941
中です	-10.9412
トゥ	-10.9413
ですから	-10.9415
があると	-10.9415
자로	-10.9416
▁心配ない	-10.9419
▁대위	-10.9421
撃って	-10.9421
混	-10.9423
▁고등학교	-10.9424
▁うーん	-10.9425
▁추측	-10.9425
▁시합	-10.9428
学んだ	-10.9429
闇	-10.943
▁신부님	-10.9431
▁자르	-10.9432
加	-10.9432
▁말라	-10.9432
はなかった	-10.9433
彼氏	-10.9434
▁받았어요	-10.9434
世界に	-10.9435
だったか	-10.9436
人間が	-10.9436
▁おやすみ	-10.9436
▁낸	-10.9438
▁매달	-10.9439
한데	-10.9439
놓은	-10.9441
천만	-10.9442
が分かる	-10.9443
はあなた	-10.9443
荷	-10.9443
働いてる	-10.9445
▁줄래	-10.9448
▁들어왔	-10.9448
붙	-10.9449
▁おれ	-10.9449
少ない	-10.945
らす	-10.945
行方不明	-10.9451
▁엉망이	-10.9451
▁환상	-10.9452
▁正直	-10.9452
閣下	-10.9453
당할	-10.9454
▁얼굴에	-10.9455
ためだ	-10.9457
딱	-10.9457
コンピュータ	-10.9458
▁体	-10.9461
を得る	-10.9461
▁애인	-10.9461
했군	-10.9462
▁승	-10.9463
▁생각한	-10.9464
▁무서운	-10.9465
▁하느님	-10.9465
伝説	-10.9465
我々が	-10.9465
▁글렌	-10.9466
トラ	-10.9467
▁기업	-10.9467
▁생길	-10.947
십	-10.9471
約束した	-10.9471
始まり	-10.9471
▁닫아	-10.9471
화를	-10.9471
▁俺と	-10.9472
▁알아낸	-10.9475
▁칩	-10.9475
食事	-10.9476
区	-10.9477
▁해결할	-10.9477
▁내겐	-10.9478
▁想像	-10.9479
▁どれくらい	-10.948
▁투표	-10.9481
ようね	-10.9483
▁것들이	-10.9484
▁誰もが	-10.9485
▁ベッド	-10.9485
ード	-10.9485
▁何があった	-10.9487
したよ	-10.9488
頼んで	-10.9491
フリ	-10.9493
▁의자	-10.9493
謝	-10.9493
若い	-10.9495
マリ	-10.9496
▁二人とも	-10.9497
윈	-10.9498
人間だ	-10.9499
▁알기	-10.95
▁너희가	-10.95
田	-10.95
▁죽었다고	-10.9501
▁마실	-10.9501
▁말씀드리	-10.9504
ヴォ	-10.9506
율	-10.9506
찮	-10.9506
燃料	-10.9506
都合	-10.9506
▁판매	-10.9507
戻らない	-10.9508
子供の	-10.9508
▁정의	-10.9508
続く	-10.9509
▁あなたは私	-10.9511
▁수상	-10.9511
悲しい	-10.9511
事情	-10.9513
と思うわ	-10.9514
곳	-10.9514
があるわ	-10.9515
킬	-10.9516
ヤツら	-10.9516
上がって	-10.9517
▁부하들	-10.9517
ウェン	-10.9518
達が	-10.9525
▁좋아해요	-10.9527
問題だ	-10.9527
▁시신	-10.9528
▁지금부터	-10.9528
最近	-10.9531
にとっては	-10.9534
末	-10.9538
は君	-10.9541
いいかな	-10.9541
니아	-10.9542
▁문이	-10.9544
立派な	-10.9544
▁何してる	-10.9546
▁自殺	-10.9547
いいのか	-10.9547
칭	-10.9547
違法	-10.9547
人々が	-10.9547
▁복귀	-10.9547
▁兄貴	-10.9547
と思っていた	-10.9549
マスク	-10.9549
▁조사해	-10.955
▁신청	-10.955
サイロン	-10.9551
▁テロ	-10.9553
ワード	-10.9553
▁생각하나	-10.9554
ホール	-10.9555
セル	-10.9557
ur	-10.9559
▁보이는데	-10.956
走って	-10.9561
ここに居る	-10.9561
集	-10.9561
어스	-10.9562
▁思う	-10.9562
럼	-10.9564
이며	-10.9564
▁아파	-10.9566
力が	-10.9567
▁보라고	-10.9569
37	-10.9569
くれない	-10.9569
ここに来る	-10.9571
▁この男	-10.9572
▁몰아	-10.9572
なぁ	-10.9574
거고	-10.9575
るのを	-10.9576
▁백인	-10.9576
육	-10.9582
起こる	-10.9586
▁부르지	-10.9586
▁실력	-10.9586
▁플래시	-10.9588
倉庫	-10.9588
範囲	-10.9588
▁거대한	-10.9588
▁다니엘	-10.9589
▁뿐이지	-10.9593
▁될지	-10.9593
▁살인을	-10.9594
上手	-10.9595
▁물건이	-10.9596
子供たち	-10.9597
▁들었는데	-10.9597
クラス	-10.9597
るなら	-10.9598
었다고	-10.96
人形	-10.9601
離れる	-10.9601
▁その通りだ	-10.9607
この世	-10.9607
計	-10.961
聞こえて	-10.9611
▁教会	-10.9613
하다가	-10.9613
▁시작할	-10.9614
場所で	-10.9615
▁똑똑하	-10.9617
으세요	-10.9618
않	-10.9618
てください	-10.9619
▁黒	-10.9621
いらない	-10.9621
▁빌어	-10.9622
▁真実を	-10.9622
▁민	-10.9624
アナ	-10.9624
黙って	-10.9626
보이	-10.9626
랍니다	-10.9628
▁나왔어	-10.9629
스테	-10.9629
▁正しい	-10.963
▁겁쟁이	-10.963
었을	-10.963
▁意味	-10.9632
▁방에서	-10.9632
仕事が	-10.9633
ュ	-10.9634
▁거울	-10.9634
▁마틴	-10.9636
▁キャ	-10.9636
欲	-10.9636
探す	-10.9637
▁ワトソン	-10.9637
から来た	-10.9638
違った	-10.9639
▁東	-10.9641
▁どのくらい	-10.9642
▁생존자	-10.9643
が違う	-10.9645
そうなる	-10.9647
▁여자들	-10.9648
▁こっちへ	-10.9648
色々	-10.965
かける	-10.9654
笑い	-10.9654
分かっている	-10.9655
▁ヒ	-10.9656
主人	-10.9656
▁물러나	-10.9659
셔서	-10.966
▁エル	-10.9661
墓	-10.9662
信じられない	-10.9663
▁私達が	-10.9664
匹	-10.9664
닉	-10.9664
▁뭔가가	-10.9665
▁쭉	-10.9666
사는	-10.9667
▁좋게	-10.9667
▁밝혀	-10.9668
というのは	-10.9668
객	-10.9669
▁いいんだ	-10.967
▁こんなに	-10.967
脅迫	-10.9671
細胞	-10.9671
▁ジェームズ	-10.9671
▁웨스트	-10.9671
役に立つ	-10.9671
▁드레스	-10.9671
欲しくない	-10.9672
▁업무	-10.9672
하거든요	-10.9673
ニューヨーク	-10.9673
興味深い	-10.9674
ドライブ	-10.9674
▁보시	-10.9674
ろよ	-10.9674
の意味	-10.9675
グレー	-10.9675
▁무슨일이	-10.9676
▁コール	-10.9676
▁미행	-10.9678
ケイ	-10.9679
▁형은	-10.9686
▁노인	-10.9687
▁움직이	-10.9688
▁흠	-10.9692
されていた	-10.9692
駄目だ	-10.9693
女王	-10.9697
見つける	-10.9697
▁따라오	-10.9697
偉大な	-10.9699
の一人	-10.9702
▁90	-10.9703
볼게	-10.9703
▁분은	-10.9703
ヴァン	-10.9703
었던	-10.9703
でない	-10.9706
昨	-10.9706
言ったの	-10.9707
連絡する	-10.9707
切って	-10.9707
温	-10.9707
▁中に	-10.9708
回り	-10.9709
見せ	-10.9709
室に	-10.9711
▁超	-10.9712
静	-10.9712
▁빠져나가	-10.9713
ポケット	-10.9713
▁머물	-10.9714
を置いて	-10.9714
と思っている	-10.9715
▁그리곤	-10.9715
してるわ	-10.9715
▁앤디	-10.9715
的だ	-10.9717
▁食べ	-10.9717
デー	-10.9718
▁ボ	-10.9718
依頼	-10.9719
追って	-10.972
폐	-10.9722
▁난리	-10.9722
の大	-10.9723
▁전까진	-10.9725
を呼んで	-10.9725
来てる	-10.9726
されます	-10.9726
▁爆発	-10.973
▁船長	-10.9733
知れ	-10.9734
▁맞다	-10.9735
▁봉	-10.9736
▁프레	-10.9737
創	-10.974
信じてる	-10.974
▁博士	-10.9741
曜	-10.9744
▁그대	-10.9747
するなら	-10.9747
▁リー	-10.9747
▁ビール	-10.9749
▁자격이	-10.975
45	-10.9751
▁重	-10.9754
렐	-10.9754
たのよ	-10.9754
▁すまん	-10.9754
▁GPS	-10.9754
▁일종의	-10.9754
推測	-10.9754
投票	-10.9754
▁완성	-10.9755
の言うとおり	-10.9755
▁목숨이	-10.9755
同士	-10.9756
▁태양	-10.9756
連絡を	-10.9758
時だ	-10.9758
때문에	-10.9758
直接	-10.976
バラ	-10.9761
コンピューター	-10.9762
コピー	-10.9762
情報は	-10.9765
▁아담	-10.9766
どこにいる	-10.9766
▁있거든요	-10.9767
ありますか	-10.9767
▁あらゆる	-10.9769
イイ	-10.9773
▁ジミー	-10.9774
38	-10.9776
▁ウォーカー	-10.9777
に関して	-10.9778
と同じだ	-10.9778
▁없군	-10.9778
ゲー	-10.9778
たくなかった	-10.978
感謝します	-10.9781
キミ	-10.9784
옥	-10.9787
言っている	-10.9788
렸다	-10.979
杯	-10.979
▁사건에	-10.9791
▁ここでは	-10.9791
セキュリティ	-10.9792
午前	-10.9793
▁힘들었	-10.9793
走り	-10.9793
▁どうしたんだ	-10.9795
▁명은	-10.9795
▁궁금한	-10.9796
▁불쌍한	-10.9796
▁어딘지	-10.9796
繭子	-10.9796
に戻れ	-10.9797
赤	-10.9797
▁빠른	-10.9797
ショック	-10.9797
ケーキ	-10.9797
センター	-10.9798
▁そしたら	-10.9799
▁됐나	-10.9799
▁둔	-10.9799
伝言	-10.9801
▁됐습니다	-10.9802
▁何してるの	-10.9803
と話した	-10.9804
업자	-10.9806
놔	-10.9806
ってきた	-10.9807
汚	-10.9808
▁자격	-10.981
殺さない	-10.9811
▁起きて	-10.9811
どうも	-10.9812
러스	-10.9813
▁높이	-10.9813
▁채로	-10.9814
上げる	-10.9814
▁늦었어	-10.9818
やめ	-10.9818
▁逮捕	-10.982
▁물어볼	-10.982
는군요	-10.9822
했잖아요	-10.9824
ケー	-10.9825
んの	-10.9825
▁知る	-10.9826
相手は	-10.9826
国の	-10.9826
▁든	-10.9827
激	-10.9832
▁찾았다	-10.9833
▁들여	-10.9837
ホーム	-10.9838
눈	-10.9838
촉	-10.9838
▁끝났어요	-10.9838
登	-10.9839
▁미사일	-10.9839
食べた	-10.9839
おじさん	-10.9839
▁아버님	-10.9839
問題がある	-10.984
▁출동	-10.984
ゲート	-10.9842
どうした	-10.9842
▁녹음	-10.9842
▁제조	-10.9843
今まで	-10.9844
▁폭탄을	-10.9847
するまで	-10.9849
リンク	-10.9851
곡	-10.9851
報	-10.9853
声が	-10.9854
▁ロバート	-10.9855
頭の	-10.9856
メル	-10.9857
▁カーラ	-10.9862
ことができます	-10.9862
▁あんたに	-10.9866
▁夕食	-10.9867
했네요	-10.9868
▁생각해봐	-10.9869
▁X	-10.987
▁못했어	-10.987
▁싸웠	-10.9872
테니까	-10.9872
科学者	-10.9873
서를	-10.9874
왔어요	-10.9875
在	-10.9876
▁어떤지	-10.9876
リアン	-10.9876
あいつ	-10.9877
셰	-10.9877
▁おかしい	-10.9877
天才	-10.9878
自殺	-10.9879
油	-10.9879
だけさ	-10.988
尊敬	-10.9881
▁바우어	-10.9881
拘束	-10.9881
資料	-10.9881
▁태어났	-10.9881
事件を	-10.9881
んのか	-10.9882
▁걘	-10.9882
匂い	-10.9883
ボックス	-10.9884
裁判	-10.9884
▁기절	-10.9887
▁걱정할	-10.9887
▁번만	-10.9889
怒って	-10.9891
ッター	-10.9893
75	-10.9894
▁고치	-10.9895
ジャン	-10.9896
로군	-10.9897
47	-10.9897
▁姉	-10.9898
らせる	-10.9899
▁승인	-10.9899
科学	-10.9901
▁놔두	-10.9902
▁나가요	-10.9907
において	-10.9908
▁この子	-10.9909
▁立ち	-10.991
▁黙れ	-10.991
▁사랑을	-10.991
終わって	-10.9911
辺	-10.9913
奪	-10.9913
だったよ	-10.9913
▁실제	-10.9914
▁警察は	-10.9915
をつけ	-10.9916
優	-10.9917
▁공기	-10.9922
━	-10.9923
려서	-10.9924
▁지문	-10.9925
遅い	-10.9925
進んで	-10.9927
갑	-10.9927
運転手	-10.9928
メッセージ	-10.9929
▁恐怖	-10.993
▁양반	-10.993
▁윈	-10.9931
いても	-10.9933
買い	-10.9936
ベラ	-10.9937
るのに	-10.9938
ほとんど	-10.9938
ワイン	-10.9939
ドラゴン	-10.9939
▁연결해	-10.994
▁중독	-10.9941
▁천사	-10.9943
のせいじゃない	-10.9943
出来て	-10.9946
気を付け	-10.9947
したのよ	-10.9952
보죠	-10.9952
▁지어	-10.9955
▁信頼	-10.9956
だらけ	-10.9957
▁실험실	-10.9958
ベルト	-10.9959
켓	-10.9965
▁육	-10.9965
設計	-10.9966
▁止め	-10.9966
ミサイル	-10.9966
夏	-10.9966
手伝う	-10.9966
▁분위기	-10.9966
▁봤다	-10.9966
痕跡	-10.9966
哀れ	-10.9967
▁21	-10.9967
屋根	-10.9967
▁잡는	-10.9968
遺伝子	-10.9968
▁見つける	-10.9969
▁들려요	-10.997
드립니다	-10.997
買った	-10.9971
▁아니란	-10.9972
았어요	-10.9975
みたいね	-10.9975
言うんだ	-10.9978
燃え	-10.9978
数日	-10.9979
どうなった	-10.998
▁感謝	-10.998
手で	-10.9982
▁恐らく	-10.9983
バート	-10.9984
以外は	-10.9985
目標	-10.9985
▁ガス	-10.9988
▁대상	-10.9995
の王	-10.9995
▁전쟁이	-10.9996
なくなって	-10.9999
という事	-11
▁사랑해요	-11.0002
良くない	-11.0003
▁お前と	-11.0003
시켰어	-11.0003
▁리사	-11.0003
想像	-11.0005
▁위층	-11.0009
狼	-11.0009
▁얻어	-11.0009
試験	-11.0009
▁それ以上	-11.0009
レストラン	-11.0009
▁山	-11.001
▁장례식	-11.001
たのは	-11.0012
▁마음대로	-11.0012
拒否	-11.0013
▁소설	-11.0014
▁長い	-11.0014
恐	-11.0014
置く	-11.0015
▁위험하	-11.0016
▁her	-11.0017
は今	-11.0018
▁삶이	-11.002
▁열차	-11.002
人間の	-11.0023
▁治療	-11.0024
か何か	-11.0024
▁사형	-11.0024
ナイト	-11.0026
▁政府	-11.0028
専門家	-11.003
▁달라요	-11.0032
▁ジェダイ	-11.0033
退屈	-11.0033
受	-11.0035
替え	-11.0035
ディア	-11.0036
▁멍청이	-11.0037
図	-11.0037
▁좋은데	-11.0038
▁않았죠	-11.004
라이트	-11.0041
▁그리스	-11.0041
▁問題ない	-11.0041
▁애들을	-11.0042
ゴミ	-11.0042
飛ば	-11.0042
向こう	-11.0043
비가	-11.0043
▁죽였다고	-11.0045
▁光	-11.0046
co	-11.0047
▁直接	-11.0048
좌	-11.005
▁잠시만	-11.005
口に	-11.0051
자야	-11.0051
죄	-11.0052
닝	-11.0052
ウイルス	-11.0052
演奏	-11.0052
認識	-11.0052
スピード	-11.0052
▁わかりました	-11.0052
▁폐쇄	-11.0052
否定	-11.0052
最善	-11.0053
▁연료	-11.0054
▁ビ	-11.0054
▁멍	-11.0055
▁중앙	-11.0055
▁외부	-11.0056
▁권력	-11.0058
歩く	-11.0059
▁답을	-11.0063
様だ	-11.0064
짜리	-11.0064
90	-11.0064
レース	-11.0065
으시	-11.0066
▁샌	-11.0067
に電話	-11.0067
好み	-11.0067
▁tr	-11.007
を得た	-11.0071
を変え	-11.0072
▁갖	-11.0072
▁채워	-11.0072
▁驚いた	-11.0075
▁美しい	-11.0075
▁사건은	-11.0079
道路	-11.0079
ヨ	-11.0079
言われて	-11.008
져요	-11.0082
セン	-11.0084
▁ショーン	-11.0085
드가	-11.0085
▁出来ない	-11.0086
▁地獄	-11.0087
▁유죄	-11.0089
方に	-11.0091
ナイフ	-11.0092
は無理	-11.0093
ブラック	-11.0094
私たちの	-11.0094
▁パーティー	-11.0095
▁바깥	-11.0096
支持	-11.0096
▁긴급	-11.0096
プル	-11.0096
▁무덤	-11.0097
のでは	-11.0098
했으니까	-11.0099
▁공급	-11.0099
決	-11.01
▁精神	-11.01
▁죽여야	-11.0101
▁보냈어	-11.0101
▁감사해요	-11.0102
▁감히	-11.0102
▁저들이	-11.0104
しまって	-11.0105
▁행위	-11.0105
計画は	-11.0106
▁폭	-11.0106
日だ	-11.0107
じゃん	-11.0108
▁죽었을	-11.011
教師	-11.011
▁素敵な	-11.011
▁殺し	-11.0115
▁밴드	-11.0118
▁값	-11.0118
▁눈치	-11.0121
넌	-11.0121
▁좋네	-11.0122
▁あそこに	-11.0122
보는	-11.0123
▁베이	-11.0124
ちゃんと	-11.0125
持	-11.0126
入れて	-11.0126
▁거라고요	-11.013
▁본인	-11.013
▁사인	-11.0131
▁약물	-11.0132
▁봐라	-11.0133
▁생각했어요	-11.0133
のを見た	-11.0134
간다	-11.0134
▁帰って	-11.0136
度と	-11.0136
맹	-11.0138
られなかった	-11.0138
펠	-11.0139
▁충분해	-11.0139
ラニスター	-11.0139
配置	-11.0139
操作	-11.014
▁깊은	-11.014
▁결정을	-11.0141
일을	-11.0141
▁로비	-11.0142
狩り	-11.0142
になれ	-11.0144
うまい	-11.0145
▁電気	-11.0145
タウン	-11.0146
ent	-11.0147
減	-11.0148
▁생각도	-11.0148
▁빠	-11.0149
되었습니다	-11.015
カネ	-11.015
本を	-11.0151
を呼ぶ	-11.0152
理解して	-11.0153
▁どうせ	-11.0153
▁いずれ	-11.0155
▁가격	-11.0157
▁分かって	-11.0158
31	-11.0161
▁자라	-11.0162
を知る	-11.0164
▁걸까	-11.0165
▁가죠	-11.0165
遠い	-11.0166
번지	-11.0166
병이	-11.0166
詰め	-11.0168
▁시티	-11.0173
ter	-11.0174
ow	-11.0174
▁いくつか	-11.0176
老人	-11.0176
家族は	-11.0179
▁거네	-11.0179
▁듣지	-11.0179
が多い	-11.018
▁벗어	-11.0182
近づいて	-11.0183
接近	-11.0183
▁드리죠	-11.0184
▁안내	-11.0188
▁어울리	-11.0189
うち	-11.019
▁金を	-11.019
▁띄	-11.0191
警備員	-11.0192
は知ってる	-11.0194
リスク	-11.0195
ダム	-11.0196
何とか	-11.0198
▁하실	-11.0198
▁선생님이	-11.0201
▁볼게	-11.0202
駄目	-11.0203
話してた	-11.0204
▁가끔은	-11.0205
상이	-11.0207
▁貴方の	-11.0209
焼き	-11.021
▁※	-11.0211
▁원한다면	-11.0213
階段	-11.0215
行動を	-11.0217
血が	-11.0217
▁LA	-11.0218
▁いない	-11.0222
봐야	-11.0222
▁시스템을	-11.0223
まった	-11.0224
捕らえ	-11.0227
輸送	-11.0227
▁폭파	-11.0227
▁착각	-11.0227
▁마침내	-11.0227
返せ	-11.023
▁숨기	-11.0231
주셔서	-11.0232
▁사랑에	-11.0233
地域	-11.0234
▁데려왔	-11.0234
▁こっちは	-11.0234
▁갈까	-11.0236
▁상황에	-11.0236
習	-11.0239
te	-11.0244
으려	-11.0245
彼らを	-11.0245
▁どういう	-11.0245
説明する	-11.0247
▁좋죠	-11.0251
きり	-11.0255
▁않아도	-11.0257
▁안다고	-11.0258
ちょうど	-11.0261
▁そこまで	-11.0265
일까요	-11.0266
▁マジで	-11.0267
フィン	-11.0269
▁드러	-11.0269
のみ	-11.0269
塔	-11.0271
▁멈출	-11.0271
ポイント	-11.0271
▁라니스터	-11.0271
▁偉大な	-11.0272
反乱	-11.0272
進む	-11.0273
▁검색	-11.0273
▁いいかい	-11.0274
見せて	-11.0274
自分が	-11.0274
▁틀	-11.0275
ところで	-11.0275
▁가봐	-11.0276
닌	-11.0277
▁범인은	-11.0277
ないなら	-11.0279
▁지냈	-11.0279
▁사귀	-11.0282
証拠を	-11.0283
하는거	-11.0283
をしている	-11.0283
自身の	-11.0283
ってない	-11.0285
▁위에서	-11.0287
文	-11.0289
▁전설	-11.0292
▁개가	-11.0293
▁들은	-11.0295
間違って	-11.0295
えた	-11.0296
▁行きましょう	-11.0297
▁원치	-11.0297
の話だ	-11.0297
車が	-11.0298
ヴァー	-11.0299
▁생각이야	-11.0299
▁훔치	-11.03
▁そうする	-11.03
痛	-11.0301
▁新聞	-11.0302
▁손이	-11.0302
▁知ってた	-11.0303
前は	-11.0304
はずです	-11.0304
▁꿈이	-11.0305
現れる	-11.0305
측	-11.0306
小さい	-11.0308
研究室	-11.0309
스톤	-11.031
ならん	-11.0311
するよう	-11.0312
▁피우	-11.0314
▁되기	-11.0314
対策	-11.0315
▁반복	-11.0318
▁奴らが	-11.0318
▁예약	-11.0319
▁그곳에	-11.032
실에서	-11.0323
웨이	-11.0323
ユー	-11.0324
マス	-11.0326
▁비난	-11.0328
▁나와서	-11.0328
ケガ	-11.0329
▁無理だ	-11.0329
▁종이	-11.033
▁멜	-11.033
▁있는데요	-11.033
怒ってる	-11.0331
▁신원	-11.0331
▁何があったの	-11.0331
▁하든	-11.0332
▁우리랑	-11.0333
▁관련이	-11.0333
▁집착	-11.0333
▁찾아왔	-11.0334
さんに	-11.0336
▁馬鹿	-11.0336
セー	-11.0337
▁얘기하는	-11.0338
▁된다면	-11.0339
▁잊어	-11.0339
ないし	-11.034
ないだろ	-11.0341
どけ	-11.0341
それに	-11.0342
▁신사	-11.0343
5%	-11.0343
▁남아있	-11.0344
▁마르	-11.0344
▁お前達	-11.0345
▁정말이야	-11.0348
▁먹으면	-11.035
マイ	-11.0353
▁만나는	-11.0353
▁マスター	-11.0354
除	-11.0356
アラ	-11.0356
▁来い	-11.0357
行けば	-11.0358
엽	-11.0359
宝	-11.0359
墜落	-11.0359
それぞれ	-11.0359
▁비숍	-11.036
自宅	-11.0361
道具	-11.0361
降り	-11.0362
▁현장에서	-11.0362
▁ほ	-11.0365
分らない	-11.0371
起きる	-11.0371
▁미쳐	-11.0371
▁깨어나	-11.0377
최악의	-11.0378
▁カーター	-11.0381
▁協力	-11.0381
眠れ	-11.0382
▁できない	-11.0383
주길	-11.0384
グリ	-11.0387
▁수치	-11.0387
▁all	-11.0388
▁큰일	-11.0389
안에	-11.0389
出ない	-11.039
z	-11.0391
▁바지	-11.0394
끔	-11.0396
ウィルス	-11.04
▁なぜだ	-11.0402
護	-11.0402
덤	-11.0402
▁받지	-11.0403
▁접촉	-11.0404
襲撃	-11.0404
▁君ら	-11.0405
▁쉬어	-11.0405
機密	-11.0406
▁동시에	-11.0406
善	-11.0406
▁보장	-11.0407
ルーム	-11.041
南上	-11.041
▁어서요	-11.0416
▁발전	-11.0416
▁調査	-11.0416
かせ	-11.0417
▁지켜보	-11.0417
できれば	-11.0418
盗み	-11.0421
들에	-11.0422
▁違うわ	-11.0427
▁술을	-11.0429
▁사내	-11.043
以前	-11.0437
神の	-11.0437
知っています	-11.0438
▁麻薬	-11.0438
話せない	-11.0439
▁해낼	-11.0441
▁응답	-11.0443
ベッド	-11.0444
人殺し	-11.0445
분에	-11.0446
ページ	-11.0447
開いて	-11.0448
▁엄마랑	-11.0448
▁사람들과	-11.0449
妄想	-11.0449
応援	-11.0449
完成	-11.0449
集団	-11.0449
優しい	-11.0449
楽しかった	-11.045
▁力	-11.045
▁皆が	-11.0451
번가	-11.0451
何度も	-11.0451
▁환영합니다	-11.0451
緊急	-11.0451
▁손으로	-11.0451
付けた	-11.0451
んですが	-11.0454
▁도시를	-11.0455
마리	-11.0457
▁이용해	-11.046
▁언제부터	-11.0463
명은	-11.0468
麻薬	-11.0469
포트	-11.0469
▁이놈	-11.0471
▁들어갔	-11.0471
▁빼내	-11.0472
えない	-11.0474
名を	-11.0474
認める	-11.0476
会って	-11.0477
▁ドラゴン	-11.0478
▁so	-11.0478
▁생기면	-11.0478
られている	-11.0481
税	-11.0482
드릴게요	-11.0483
の話は	-11.0483
騒ぎ	-11.0484
▁책상	-11.0487
見ている	-11.0489
▁인물	-11.0489
になると	-11.0489
カラ	-11.049
▁격	-11.0492
登録	-11.0494
▁like	-11.0494
▁브라운	-11.0494
▁미안한데	-11.0495
済む	-11.0495
▁U	-11.0495
▁돌아가는	-11.0495
態度	-11.0495
ブス	-11.0496
と呼ぶ	-11.0496
金属	-11.0497
▁いったい	-11.0497
向いて	-11.0498
おいで	-11.0499
ごめんなさい	-11.05
求め	-11.0502
▁クレア	-11.0504
でさえ	-11.0505
▁이전	-11.0506
▁어딘가	-11.0508
遺体	-11.0508
の場所	-11.0509
やるんだ	-11.051
に何か	-11.0511
웠어	-11.0512
분의	-11.0512
리에	-11.0513
▁대령	-11.0514
に向かって	-11.0514
▁없었죠	-11.0514
▁거라는	-11.0515
▁이러면	-11.0517
▁날아	-11.0518
▁ほんの	-11.0519
現	-11.0519
▁저주	-11.0521
常	-11.0521
なんで	-11.0521
ブルース	-11.0521
ry	-11.0522
▁빠르	-11.0523
凍	-11.0524
聞いてない	-11.0525
▁부모님이	-11.0525
▁正直に	-11.053
▁의미가	-11.0531
▁말대로	-11.0531
주의	-11.0532
聞こえない	-11.0533
앙	-11.0533
피크	-11.0534
▁중인	-11.0534
国家	-11.0534
段階	-11.0535
렀	-11.0535
勝った	-11.0537
をくれ	-11.0537
▁ポール	-11.0538
時間も	-11.0538
あきらめ	-11.0539
렬	-11.0539
▁토마스	-11.0539
▁군사	-11.0539
▁did	-11.0539
注射	-11.0539
理論	-11.054
▁밤새	-11.054
▁미끼	-11.054
▁드릴게요	-11.0541
サンプル	-11.0541
数字	-11.0541
は俺	-11.0541
処分	-11.0541
▁どうやら	-11.0543
姿を	-11.0543
▁놓치	-11.0543
▁테고	-11.0545
タル	-11.0546
▁같구나	-11.0546
自然	-11.0547
▁치즈	-11.0548
捕まえた	-11.0548
▁배운	-11.0548
▁맞습니다	-11.055
困る	-11.055
▁돌아가야	-11.0554
▁그리워	-11.0556
▁お願いします	-11.0557
いい子	-11.0558
出来なかった	-11.0558
간에	-11.0559
답	-11.056
娘が	-11.0562
折	-11.0562
▁잠을	-11.0563
っか	-11.0563
▁사람들의	-11.0563
▁既に	-11.0564
▁고기	-11.0566
遊	-11.0567
▁필요하면	-11.0571
手助け	-11.0572
▁묻는	-11.0573
맥	-11.0573
▁대해선	-11.0575
▁에드	-11.0577
▁やつら	-11.0578
最高だ	-11.0579
ないといけない	-11.058
▁갇혀	-11.058
▁하나님	-11.058
▁쓸모	-11.0583
どおり	-11.0584
▁시카고	-11.0585
防衛	-11.0585
静流	-11.0585
▁僕には	-11.0586
の父親	-11.0587
▁말씀해	-11.0587
▁진술	-11.0588
▁us	-11.0588
▁뭐라도	-11.0588
▁버티	-11.059
▁아무런	-11.059
辛い	-11.0591
利益	-11.0591
드리겠습니다	-11.0592
直す	-11.0593
▁말이오	-11.0593
▁인생이	-11.0594
エンジン	-11.0595
君と	-11.0596
マーク	-11.0597
▁追い	-11.0601
▁함장님	-11.0601
はその	-11.0601
帰れ	-11.0602
と呼んで	-11.0603
▁안녕히	-11.0604
▁마티	-11.0604
押さえ	-11.0605
▁만들지	-11.0606
▁도와줄게	-11.0607
건가	-11.0608
▁의하면	-11.0612
気はない	-11.0615
▁떠나야	-11.0615
▁아빠한테	-11.0616
▁記録	-11.0616
▁따위	-11.0618
付ける	-11.0619
▁맞을	-11.062
時から	-11.062
らず	-11.0621
▁축하해	-11.0621
▁북쪽	-11.0621
다면서요	-11.0621
もらえ	-11.0621
理由が	-11.0624
に入れ	-11.0624
▁気に	-11.0626
の命	-11.0626
たまえ	-11.0626
速度	-11.0626
▁드릴까요	-11.063
分からん	-11.0631
▁죄를	-11.0633
▁그만둬	-11.0633
▁진작	-11.0633
▁발견했	-11.0634
겠니	-11.0634
▁함선	-11.0635
▁말했어요	-11.0636
しな	-11.0638
思っている	-11.0639
掛けて	-11.0642
▁そうなの	-11.0643
▁そうだね	-11.0644
▁天	-11.0645
選んだ	-11.0645
▁말로	-11.0646
▁勝手に	-11.0646
を感じる	-11.0648
▁나에	-11.0648
하셨어요	-11.0648
休	-11.065
っち	-11.0653
▁어머	-11.0653
▁다야	-11.0654
▁대비	-11.0654
▁지키는	-11.0654
▁모르잖아	-11.0654
▁かつて	-11.0655
▁ポー	-11.0656
黒い	-11.0657
そこで	-11.0658
鍵	-11.066
って何	-11.066
低	-11.0661
▁차는	-11.0662
真っ	-11.0664
離れ	-11.0664
▁危険な	-11.0667
する気	-11.0669
▁そこは	-11.0669
▁自然	-11.0669
▁주차	-11.067
掘	-11.0672
損	-11.0673
食い	-11.0673
▁도망	-11.0674
렁	-11.0676
▁배터리	-11.0676
ギャング	-11.0676
▁무고한	-11.0676
弾丸	-11.0677
公園	-11.0677
▁감독	-11.0678
▁여름	-11.0678
カリ	-11.0679
▁おいおい	-11.0679
▁말하기	-11.0679
つけた	-11.068
持つ	-11.0681
▁최소한	-11.0683
▁게일	-11.0684
구먼	-11.0686
と思うけど	-11.0686
記者	-11.0687
っこ	-11.0687
だめだ	-11.0691
コナー	-11.0691
遊んで	-11.0693
超	-11.0693
心が	-11.0695
車の	-11.0695
▁원한다	-11.0701
▁미쳤어	-11.0702
を出す	-11.0704
勇気	-11.0704
去	-11.0705
気になる	-11.0705
フリー	-11.0706
暗殺	-11.0706
▁생존	-11.0708
▁日本	-11.0708
▁頭が	-11.071
▁부르는	-11.0711
けた	-11.0711
이었습니다	-11.0712
▁間違い	-11.0712
▁なんてこと	-11.0716
刻	-11.0716
外で	-11.0717
▁キー	-11.0717
▁だったら	-11.0719
驚く	-11.0721
▁일으키	-11.0722
緊張	-11.0722
▁캠프	-11.0722
▁홉스	-11.0723
もらおう	-11.0723
▁ママが	-11.0723
がありました	-11.0723
ne	-11.0724
▁장담	-11.0724
始めよう	-11.0724
▁프레디	-11.0724
社の	-11.0725
調べた	-11.0725
遅れ	-11.0725
▁줄리아	-11.0726
ないだろう	-11.0727
出て行く	-11.0728
と聞いた	-11.0728
筈	-11.0728
怖	-11.0729
80	-11.0729
の中の	-11.0729
치기	-11.073
▁안심	-11.073
▁ダン	-11.0731
深	-11.0731
▁북	-11.0733
▁치우	-11.0733
▁모습이	-11.0734
▁릴리	-11.0736
死なせ	-11.0737
▁그러게	-11.0738
▁손님이	-11.0739
問題を	-11.0739
フィールド	-11.0739
▁とんでもない	-11.074
식을	-11.0741
あんな	-11.0742
親父	-11.0743
▁証明	-11.0745
▁붙여	-11.0747
▁계획은	-11.0747
できん	-11.0747
▁믿기	-11.0748
投資	-11.075
▁콩	-11.0751
▁追跡	-11.0752
令状	-11.0752
틀리	-11.0757
▁범인을	-11.0758
자들은	-11.0758
▁가족은	-11.0758
▁ホントに	-11.0759
頂	-11.076
▁熱	-11.0761
▁どこから	-11.0763
払って	-11.0765
▁인간은	-11.0765
▁사랑한다	-11.0768
▁들었지	-11.0768
してくる	-11.0768
眼	-11.0768
▁탠디	-11.0768
▁아이디어	-11.0768
▁마무리	-11.0769
権限	-11.0769
▁이용하	-11.0769
▁밝히	-11.077
대의	-11.077
を使った	-11.077
▁오버	-11.0772
に感謝	-11.0772
▁보상	-11.0773
上で	-11.0774
▁키우	-11.0775
るだろう	-11.0775
▁外に	-11.0776
65	-11.0778
34	-11.078
変な	-11.0783
▁そうだよ	-11.0783
ときは	-11.0783
されています	-11.0784
▁너만	-11.0785
밤	-11.0785
▁모양	-11.0788
ませ	-11.0788
マイケル	-11.079
社長	-11.0792
気だ	-11.0795
▁잡히	-11.0797
言うの	-11.0798
▁헤이	-11.0801
のためだ	-11.0804
騙	-11.0805
たのに	-11.0809
気か	-11.0811
▁곳이야	-11.0811
眠って	-11.0813
▁저항	-11.0814
▁책임이	-11.0814
▁녀석들	-11.0814
▁탱크	-11.0815
選挙	-11.0815
接続	-11.0815
電源	-11.0815
▁캐롤	-11.0815
▁키에라	-11.0816
チケット	-11.0816
シールド	-11.0816
▁일곱	-11.0818
▁미스	-11.0819
▁해라	-11.082
▁축복	-11.082
コール	-11.082
不足	-11.082
タマ	-11.0821
▁何もない	-11.0821
始まった	-11.0823
▁확실해요	-11.0824
학자	-11.0824
まとも	-11.0825
하겠소	-11.0826
▁ガ	-11.0826
▁왔나	-11.0828
▁事件	-11.0829
▁일어나는	-11.083
なのね	-11.083
そばに	-11.0831
▁말게	-11.0831
情	-11.0832
死を	-11.0834
▁셈이	-11.0835
唯一	-11.0835
飲み物	-11.0836
狙	-11.0837
恐ろしい	-11.084
目撃	-11.0841
▁森	-11.0842
▁나타났	-11.0842
하군	-11.0843
했다고요	-11.0845
▁보려고	-11.0845
狂ってる	-11.0847
んですね	-11.0849
神々	-11.0849
▁신호가	-11.0849
船長	-11.0849
全員が	-11.0849
▁거잖아요	-11.085
던가요	-11.085
▁세상의	-11.0851
せい	-11.0852
▁나쁘지	-11.0853
▁무장	-11.0853
▁ボブ	-11.0856
▁말아	-11.0856
▁걸세	-11.0858
▁끈	-11.0858
問題は	-11.086
▁않았지	-11.0861
灯	-11.0861
起きて	-11.0861
▁드로이드	-11.0862
お気に入り	-11.0862
▁흥미로운	-11.0862
▁어쩐	-11.0862
訪問	-11.0862
▁예뻐	-11.0862
▁출근	-11.0862
▁알다시피	-11.0863
▁융자	-11.0863
▁이제야	-11.0864
すべきだ	-11.0864
▁살짝	-11.0865
야말로	-11.0867
▁無駄	-11.0869
もいない	-11.0869
っちゃった	-11.0871
ゲイル	-11.0871
ノン	-11.0872
一致	-11.0874
するには	-11.0875
리라	-11.0875
入れる	-11.0877
▁st	-11.0879
チーズ	-11.088
▁キング	-11.088
偽	-11.088
겠구나	-11.088
▁本気	-11.0881
見ろ	-11.0883
▁뻔했	-11.0883
▁산소	-11.0885
▁절반	-11.089
▁자동	-11.089
ジェダイ	-11.0891
▁どれ	-11.0892
▁トッド	-11.0894
▁世界中	-11.0895
으로는	-11.0896
どうするの	-11.0897
디아	-11.0898
▁최대	-11.0901
▁접	-11.0901
▁あとは	-11.0902
하려던	-11.0902
▁병력	-11.0903
▁가려	-11.0903
▁닭	-11.0903
▁無い	-11.0905
섭	-11.0906
てしまう	-11.0906
▁막아야	-11.0908
冬	-11.0908
拷問	-11.0909
羊	-11.0909
▁타일러	-11.0909
護衛	-11.0909
▁ジェイソン	-11.0909
やすい	-11.0909
▁터널	-11.0909
相手に	-11.0909
ジャンプ	-11.091
▁월트	-11.0912
▁골라	-11.0913
▁로저	-11.0914
スキャン	-11.0915
になるわ	-11.0915
▁출구	-11.0915
▁잡아먹	-11.0916
▁가시	-11.0916
払い	-11.0916
▁전화해서	-11.0918
したり	-11.0918
800	-11.092
頼み	-11.0921
▁인간들	-11.0921
すぎた	-11.0921
▁들어온	-11.0921
다운	-11.0922
経	-11.0924
▁뵙	-11.0924
ウン	-11.0925
に行け	-11.0925
ノック	-11.0928
▁연관	-11.093
反	-11.0931
ですよね	-11.0932
見えるか	-11.0932
専門	-11.0932
비스	-11.0933
▁찾으	-11.0934
텔	-11.0935
▁아시죠	-11.0937
▁現場	-11.0943
▁결과가	-11.0944
つもりだった	-11.0946
▁숙녀	-11.0946
孫	-11.0947
止める	-11.0948
▁すばらしい	-11.0949
スタン	-11.0952
▁彼等	-11.0953
のものだ	-11.0953
包	-11.0954
▁バカな	-11.0954
▁かわいい	-11.0955
▁묶어	-11.0956
▁속임수	-11.0956
▁링컨	-11.0956
冷静	-11.0956
観察	-11.0956
ニャ	-11.0956
小説	-11.0958
라구요	-11.0959
家だ	-11.096
感覚	-11.0961
ここへ	-11.0961
▁왔었	-11.0962
▁있긴	-11.0962
ss	-11.0965
ゴン	-11.0965
▁오르	-11.0965
身分	-11.0967
何が起こった	-11.0972
のおかげで	-11.0972
電話する	-11.0972
▁행복해	-11.0972
車に	-11.0973
ベルリン	-11.0973
合って	-11.0973
▁뜻이죠	-11.0974
▁오게	-11.0975
내가	-11.0975
▁좋아할	-11.0975
直ぐ	-11.0976
▁デート	-11.0976
▁기계가	-11.0978
吹き	-11.0979
人がいる	-11.098
▁심리	-11.098
つもりか	-11.0981
吸	-11.0986
▁48	-11.0986
▁무시	-11.0987
▁물이	-11.0988
してるのか	-11.0988
▁うわ	-11.0988
허	-11.0989
▁상황은	-11.0991
▁충성	-11.0992
▁에이	-11.0992
▁왕의	-11.0996
▁心臓	-11.0997
走れ	-11.0998
使え	-11.1
▁가봐야	-11.1
行くの	-11.1001
▁車の	-11.1001
ここにある	-11.1002
すぎて	-11.1002
気づいて	-11.1003
­	-11.1003
喜び	-11.1003
詳しく	-11.1003
▁장벽	-11.1004
中尉	-11.1004
▁증오	-11.1004
▁マギー	-11.1004
▁얻었	-11.1004
▁등록	-11.1004
줬지	-11.1004
たから	-11.1004
わけない	-11.1005
ニング	-11.1005
▁힐	-11.1006
▁농담이	-11.1006
▁너야	-11.1007
▁가려고	-11.1008
メッセージを	-11.1009
▁시기	-11.101
トランク	-11.101
誰にも	-11.101
▁강해	-11.1011
▁こりゃ	-11.1012
抜き	-11.1015
が起きた	-11.1016
▁반가워	-11.1018
開発	-11.1019
▁어머니는	-11.1019
▁近	-11.1019
良	-11.1022
載	-11.1022
インド	-11.1024
▁たくさん	-11.1026
▁흉	-11.1027
▁수준	-11.1029
▁리더	-11.103
▁살펴보	-11.103
に出	-11.1031
▁오전	-11.1033
스토	-11.1033
可能性は	-11.1034
気をつけ	-11.1035
▁神は	-11.1036
聞きました	-11.1037
▁가라	-11.1038
出さない	-11.1038
裁	-11.1039
▁느끼	-11.104
陛下	-11.104
▁우리에겐	-11.104
▁ヨ	-11.1042
コフ	-11.1045
の名前を	-11.1045
▁주셔서	-11.1046
▁않나요	-11.1047
▁누워	-11.1048
現れた	-11.1049
떡	-11.105
裸	-11.1051
〞	-11.1051
慈悲	-11.1051
랭	-11.1051
▁간호사	-11.1051
凶獣	-11.1051
計算	-11.1051
散歩	-11.1051
助かった	-11.1052
▁스캔	-11.1052
フィート	-11.1052
하는게	-11.1053
プール	-11.1055
さないと	-11.1056
笑って	-11.1056
▁특수	-11.1056
一族	-11.1056
▁살리	-11.1058
スカ	-11.1058
▁그놈들	-11.1059
る前に	-11.106
するから	-11.1061
▁裏	-11.1061
の元	-11.1061
以上に	-11.1061
▁仕事を	-11.1062
同時に	-11.1062
を受ける	-11.1062
のことで	-11.1062
▁흑인	-11.1063
▁괜찮지	-11.1065
▁하니	-11.1065
▁ダメよ	-11.1066
義務	-11.1067
▁メール	-11.1067
すでに	-11.1067
▁공식	-11.1068
스크	-11.1069
弱い	-11.1071
▁블루	-11.1072
와의	-11.1074
祝	-11.1074
하더군	-11.1075
대에	-11.1078
考えろ	-11.1078
man	-11.108
無いわ	-11.108
▁로니	-11.1081
뒀어	-11.1083
▁대가	-11.1083
▁않네	-11.1084
送信	-11.1084
군단	-11.1084
▁몰려	-11.1084
向かう	-11.1085
철	-11.1085
▁何てこと	-11.1085
やめた	-11.1086
離れた	-11.1086
▁몰라서	-11.1088
▁모르니까	-11.1091
▁나머지는	-11.1091
午後	-11.1091
が必要なの	-11.1092
접	-11.1093
▁주십시오	-11.1094
▁ありがと	-11.1096
▁公	-11.1098
じゃないと	-11.1098
컬	-11.1099
▁충돌	-11.1099
▁위하여	-11.1101
所だ	-11.1101
▁さよなら	-11.1102
▁교통	-11.1103
▁정확한	-11.1104
▁정도면	-11.1105
보자	-11.1106
▁불이	-11.1106
何て	-11.1106
▁タクシー	-11.1107
▁재밌는	-11.1107
普通	-11.1108
問題ない	-11.1108
70	-11.111
ウェイン	-11.111
▁진정해요	-11.1111
▁말하길	-11.1112
▁서로를	-11.1114
居て	-11.1115
▁잠들	-11.1118
捨てた	-11.1119
事で	-11.1121
▁これだけ	-11.1121
おいた	-11.1125
なあ	-11.1126
시겠어요	-11.1128
に入れて	-11.1128
意味が	-11.1128
▁移動	-11.113
▁봅시다	-11.113
するだろう	-11.1131
자들을	-11.1131
▁하면서	-11.1132
▁サイモン	-11.1132
▁중위	-11.1133
いかない	-11.1133
▁오빠가	-11.1134
不満	-11.1135
▁해서요	-11.1135
リード	-11.1136
▁僕ら	-11.1137
ビア	-11.1138
나무	-11.1138
▁悪いが	-11.1139
▁말만	-11.1139
▁감지	-11.1139
何をしている	-11.114
▁끝이야	-11.114
▁ねぇ	-11.114
▁バイ	-11.114
▁할래	-11.1141
殿	-11.1142
▁今後	-11.1143
델	-11.1143
▁死んで	-11.1143
終	-11.1144
▁확신	-11.1146
を手に入れた	-11.1146
ポート	-11.1147
▁뭡니까	-11.1147
苦痛	-11.1147
▁エミリー	-11.1147
尾行	-11.1148
▁흘리	-11.1149
▁론	-11.1149
謝罪	-11.115
▁취하	-11.115
誠人	-11.1151
▁수백	-11.1154
しようとした	-11.1156
▁더럽	-11.1156
すればいい	-11.1157
▁회사를	-11.1157
털	-11.1157
▁단서	-11.116
▁我々に	-11.1164
당신	-11.1165
▁집중해	-11.1166
優秀な	-11.1168
▁크로	-11.1168
▁있단다	-11.1168
▁도리	-11.1168
▁돕는	-11.1171
思います	-11.1174
▁봉쇄	-11.1177
ダル	-11.1177
▁중에서	-11.1179
▁싶지만	-11.118
▁飲み	-11.118
▁대사	-11.1182
体の	-11.1183
▁않아서	-11.1183
▁대단하	-11.1184
走	-11.1185
▁짜증	-11.1185
▁만족	-11.1185
ぶり	-11.1186
すまない	-11.1186
レオ	-11.1188
▁드려	-11.1188
▁아내는	-11.1192
▁戻る	-11.1193
我慢	-11.1193
怪我	-11.1193
仲間が	-11.1194
を見てる	-11.1195
権力	-11.1195
谷	-11.1195
羽	-11.1195
詳しい	-11.1195
順調	-11.1195
▁なにか	-11.1196
▁アダム	-11.1196
信じて	-11.1196
踏み	-11.1197
学ぶ	-11.1197
▁바랐	-11.1198
▁위원회	-11.1198
▁돌아다니	-11.1199
話がある	-11.1199
려던	-11.1201
若者	-11.1201
▁되니까	-11.1202
했었	-11.1202
クリ	-11.1203
▁나간	-11.1204
과의	-11.1205
머리	-11.1207
분만	-11.1207
▁길에	-11.121
▁置いて	-11.1212
것도	-11.1213
문을	-11.1214
▁국장	-11.1215
が好きだ	-11.1216
デス	-11.1216
を盗んだ	-11.1217
選手	-11.1217
家は	-11.1219
▁찾아보	-11.122
▁모르겠네	-11.122
▁止めて	-11.1223
支払い	-11.1226
▁보물	-11.1226
▁유명한	-11.1227
フル	-11.1229
웠어요	-11.123
▁그만해요	-11.1231
▁원한	-11.1237
▁이름으로	-11.1241
▁부분이	-11.1241
集め	-11.1242
▁大学	-11.1242
尾	-11.1242
▁갔을	-11.1243
▁멈추지	-11.1243
恥	-11.1243
▁떠나지	-11.1243
켜	-11.1243
▁갈래	-11.1244
▁금요일	-11.1244
教育	-11.1244
▁스튜	-11.1244
ドロ	-11.1244
格好	-11.1244
센	-11.1245
住む	-11.1245
共有	-11.1248
回って	-11.1248
▁중요하지	-11.1249
農場	-11.1249
タンク	-11.1249
我々を	-11.125
黒人	-11.1251
を止め	-11.1251
▁깨달았	-11.1255
▁저장	-11.1256
▁발견됐	-11.1256
▁ネット	-11.1257
嘘を	-11.1259
クール	-11.1259
▁병사	-11.1261
▁말해줄	-11.1262
▁열려	-11.1264
▁무대	-11.1264
▁멀어	-11.1265
왔다	-11.1266
カイ	-11.1266
えば	-11.1266
部屋で	-11.1267
ミラー	-11.1267
▁見る	-11.1267
を聞いて	-11.127
▁영장	-11.1273
音が	-11.1274
하시면	-11.1275
▁생각한다	-11.1277
▁정체를	-11.1278
かと思った	-11.1282
見てくれ	-11.1282
白い	-11.1283
아니	-11.1283
▁다행이	-11.1284
▁興味	-11.1285
▁기념	-11.1286
▁하나의	-11.1287
▁돌아가서	-11.1288
▁파티에	-11.1291
▁장난감	-11.1291
▁프랭키	-11.1292
縮	-11.1292
趣味	-11.1292
遠慮	-11.1292
ハッキング	-11.1293
小僧	-11.1293
▁警察が	-11.1294
いとこ	-11.1294
の安全	-11.1294
▁생각했다	-11.1294
ガラス	-11.1295
▁고민	-11.1297
奥	-11.1297
配達	-11.1298
タンディ	-11.1299
슬러	-11.1299
fe	-11.1299
보다는	-11.1299
▁長く	-11.13
하라는	-11.1301
▁私はあなた	-11.1302
▁모여	-11.1302
ないな	-11.1302
サイト	-11.1303
▁わかったよ	-11.1304
21	-11.1308
▁관심을	-11.1308
と違う	-11.1311
のですが	-11.1311
지기	-11.1311
づけ	-11.1312
▁시켜	-11.1312
▁恐ろしい	-11.1315
▁수고	-11.1317
どれ	-11.1318
体を	-11.1319
▁욕	-11.1319
チュ	-11.132
針	-11.1321
▁法	-11.1322
▁고소	-11.1322
27	-11.1324
願い	-11.1326
呼んだ	-11.1327
il	-11.1327
族	-11.1328
を作り	-11.1328
▁놀이	-11.133
過ごす	-11.1331
▁깔	-11.1332
扉	-11.1333
▁출신이	-11.1334
▁차고	-11.1334
歴史	-11.1335
身を	-11.1335
役に	-11.1335
▁좀비	-11.1336
▁믿는다	-11.1338
クビ	-11.1339
ポー	-11.1339
統	-11.134
▁当	-11.134
▁아이들을	-11.134
▁데이비드	-11.1341
▁복잡한	-11.1341
▁스트레스	-11.1341
▁저지른	-11.1341
▁최초	-11.1341
あげた	-11.1342
▁하긴	-11.1344
▁어떤가	-11.1344
▁덕에	-11.1345
▁아들은	-11.1345
忘れる	-11.1346
▁말에	-11.1346
▁가동	-11.1347
にしよう	-11.1347
着け	-11.1348
합시다	-11.1348
▁다리를	-11.1349
▁봤다고	-11.1349
▁70	-11.1351
聞かない	-11.1353
忘れてた	-11.1354
▁それでいい	-11.1355
尽く	-11.1355
▁そうだった	-11.1357
▁다행이야	-11.1358
▁see	-11.136
▁영상을	-11.136
▁帰る	-11.1361
ぶち	-11.1362
그러	-11.1364
▁부상	-11.1364
ビール	-11.1364
▁僕たち	-11.1365
医	-11.1367
▁カー	-11.1368
Q	-11.1369
▁リサ	-11.137
捕まった	-11.137
▁주에	-11.1371
なくては	-11.1372
▁사라졌어	-11.1372
▁언제든	-11.1373
しなければならない	-11.1377
▁소식을	-11.1379
誰もいない	-11.1379
じゃねえ	-11.1382
받았	-11.1383
▁줄게요	-11.1383
▁아이들이	-11.1387
▁같으니	-11.1389
写	-11.139
ブラン	-11.139
を出して	-11.139
救助	-11.1391
詩	-11.1391
▁즐거운	-11.1391
▁チャールズ	-11.1391
▁탑승	-11.1391
援護	-11.1391
▁스티브	-11.1391
▁どうかな	-11.1391
▁何かあった	-11.1391
▁가르치	-11.1391
2,3	-11.1391
集会	-11.1392
怖かった	-11.1392
▁뿌리	-11.1392
▁나가자	-11.1393
▁개인적인	-11.1395
▁それより	-11.1395
電気	-11.1395
빠	-11.1395
もあった	-11.1397
▁사진이	-11.1399
▁ヘンリー	-11.14
手遅れ	-11.14
▁안전을	-11.14
質問を	-11.1401
急いで	-11.1401
白人	-11.1402
▁종일	-11.1403
カギ	-11.1403
▁사부님	-11.1403
▁뭐냐	-11.1403
▁전부터	-11.1405
上手く	-11.1405
政治	-11.1405
▁장기	-11.1406
新聞	-11.1407
したから	-11.1407
▁복도	-11.1408
だと思ってる	-11.1409
▁오랜만이	-11.1411
ゆっくり	-11.1411
遅く	-11.1412
▁이대로	-11.1412
▁세포	-11.1412
부에	-11.1412
▁고맙	-11.1416
▁時間がない	-11.1417
▁なんと	-11.1419
▁영감	-11.1419
▁튀	-11.1419
ないけど	-11.142
▁것들을	-11.1421
しますか	-11.1425
女性は	-11.1425
▁トニー	-11.1425
▁관계를	-11.1426
手は	-11.1427
持ってない	-11.1427
高く	-11.1427
砲	-11.1427
かわからない	-11.1428
不正	-11.1429
▁생각하면	-11.1429
▁약점	-11.143
▁신분	-11.143
わけだ	-11.143
▁칼리	-11.143
底	-11.1431
他	-11.1432
親切	-11.1435
▁遺体	-11.1435
価値がある	-11.1436
퀴	-11.1437
派	-11.1437
事です	-11.1438
代表	-11.1438
祈り	-11.1439
仕方ない	-11.1439
技	-11.1439
규	-11.144
▁당신들은	-11.144
▁샤워	-11.144
世紀	-11.1441
放送	-11.1441
▁지갑	-11.1442
ッと	-11.1442
動け	-11.1443
▁코트	-11.1445
▁작	-11.1447
たよ	-11.1448
▁다치게	-11.1448
▁선물을	-11.1449
始末	-11.145
▁틀어	-11.1451
出てくる	-11.1452
頭が	-11.1454
ウェ	-11.1454
ことよ	-11.1455
レッド	-11.1458
▁날씨	-11.1458
베르	-11.1459
▁闇	-11.1459
ir	-11.1464
▁총알이	-11.1467
▁때리	-11.1467
レスター	-11.1468
泣き	-11.1468
▁걸까요	-11.1468
内の	-11.1469
時間の	-11.1469
▁若い	-11.1469
▁정신을	-11.1469
認め	-11.147
▁준비됐어	-11.1471
▁幸せ	-11.1471
簡単な	-11.1472
動機	-11.1473
船を	-11.1473
に居た	-11.1475
▁이번에	-11.1477
を選ぶ	-11.1479
▁보내는	-11.1481
▁탔	-11.1481
落ちて	-11.1482
致	-11.1482
はお前	-11.1482
▁끝장	-11.1482
▁표정	-11.1482
柄	-11.1484
女を	-11.1484
悪くない	-11.1484
れている	-11.1484
▁어딨는지	-11.1487
皮	-11.1489
▁로드	-11.149
▁개의	-11.149
▁스노우	-11.149
ミッション	-11.149
矢	-11.149
냅	-11.149
▁さようなら	-11.149
かもしれません	-11.149
▁원숭이	-11.149
▁마누라	-11.149
▁데이비스	-11.149
▁규정	-11.149
▁교육	-11.1491
殺してやる	-11.1491
焼け	-11.1492
▁겁먹	-11.1492
▁これも	-11.1492
▁関係ない	-11.1493
しろと	-11.1494
▁ちょっと待て	-11.1494
知ってます	-11.1497
界	-11.1497
▁大勢	-11.1498
▁자를	-11.1499
였을	-11.15
▁皆に	-11.1501
▁장치를	-11.1501
責任者	-11.1502
もちろん	-11.1504
王の	-11.1504
▁빚	-11.1505
雨	-11.1507
▁놀랍	-11.1507
周り	-11.1507
▁일인데	-11.1509
▁공주님	-11.151
一言	-11.1512
진다	-11.1512
▁집단	-11.1516
▁チーム	-11.1516
調べる	-11.1518
99	-11.1518
非	-11.152
▁언니가	-11.1522
苦労	-11.1524
▁자네들	-11.1524
▁만나게	-11.1525
いくつかの	-11.1525
▁브리	-11.1525
変え	-11.1526
備え	-11.1526
▁軍	-11.153
▁悪かった	-11.1531
▁파일을	-11.1532
되었	-11.1533
人々を	-11.1535
넬	-11.1536
補	-11.1538
融資	-11.1539
▁That	-11.154
▁프로젝트	-11.154
▁드라이브	-11.154
▁디자인	-11.154
酸素	-11.154
▁이모션	-11.1541
▁언급	-11.1541
警察に	-11.1541
▁종족	-11.1541
ステキ	-11.1542
▁불가능해	-11.1542
을거야	-11.1544
▁트레이	-11.1545
笑顔	-11.1547
聞かせて	-11.1547
▁증상	-11.1548
▁ほんとに	-11.1552
와서	-11.1554
▁함대	-11.1557
our	-11.1558
▁별거	-11.1559
出ろ	-11.156
能	-11.156
途中で	-11.156
▁하러	-11.1561
お会い	-11.1561
▁설계	-11.1562
▁俺たちが	-11.1564
▁놀랐	-11.1565
来たんだ	-11.1566
常に	-11.1567
▁즉	-11.1567
▁가져갔	-11.1573
▁빨라	-11.1576
▁때문이다	-11.1577
疑い	-11.1579
▁열쇠를	-11.158
巨大な	-11.1581
▁살아있어	-11.1581
うん	-11.1582
の所に	-11.1582
▁기계를	-11.1582
"/	-11.1583
ローズ	-11.1583
준다고	-11.1583
騒	-11.1584
효	-11.1586
プレ	-11.1588
▁通信	-11.1588
てしまった	-11.159
せん	-11.159
▁쌍둥이	-11.159
▁베를린	-11.159
候補	-11.159
故障	-11.159
▁구급차	-11.1591
말고	-11.1592
▁他には	-11.1592
▁西	-11.1592
▁질투	-11.1592
感謝	-11.1593
行ってくれ	-11.1594
悪化	-11.1595
▁任務	-11.1596
たいなら	-11.1596
▁싶습니다	-11.1597
可能な	-11.1598
▁들어올	-11.1598
一歩	-11.16
▁破壊	-11.1601
はできない	-11.1601
ヤク	-11.1602
片付け	-11.1603
▁수행	-11.1605
▁비밀로	-11.161
▁簡単	-11.1613
▁自分自身	-11.1613
ウォーカー	-11.1613
再び	-11.1614
つま	-11.1618
▁묻어	-11.1622
▁해냈어	-11.1622
▁지켜야	-11.1622
▁총은	-11.1624
▁왔죠	-11.1626
▁스타일	-11.1626
▁읽었	-11.1626
▁エンジン	-11.1629
具	-11.163
ギー	-11.163
▁너희는	-11.1631
賞	-11.1632
方法で	-11.1634
▁출입	-11.1635
▁싸우고	-11.1636
果	-11.1637
潜	-11.1638
▁見せて	-11.1639
何があった	-11.1639
▁써서	-11.1639
診	-11.164
▁그랬죠	-11.1641
五	-11.1641
合衆国	-11.1641
餌	-11.1641
▁귀엽	-11.1641
トンネル	-11.1642
んだね	-11.1642
▁오줌	-11.1643
▁子供は	-11.1643
十分だ	-11.1645
▁에릭	-11.1645
했고요	-11.1646
捨て	-11.1647
チャンスを	-11.1647
▁クリスマス	-11.1647
▁못하면	-11.1647
▁차로	-11.1649
の母親	-11.1649
회사	-11.165
お客	-11.165
なくちゃ	-11.165
▁가둬	-11.1652
▁歯	-11.1654
▁후로	-11.1655
레스	-11.1656
▁병원에서	-11.1656
▁단순한	-11.1656
잠	-11.1658
▁覚えて	-11.1661
루스	-11.1662
▁제작	-11.1662
함이	-11.1662
▁失敗	-11.1663
盗まれた	-11.1664
▁항공	-11.1665
だろうか	-11.1665
恐れる	-11.1665
▁조심해요	-11.1666
▁トラヴィス	-11.1667
▁例の	-11.1668
大変	-11.1668
져야	-11.167
▁걸요	-11.167
▁꼬리	-11.1671
음을	-11.1672
럽	-11.1673
ないわよ	-11.1673
る事	-11.1673
いたのか	-11.1674
貸し	-11.1674
▁모르겠는데	-11.1674
現場に	-11.1676
이긴	-11.1676
▁벌레	-11.1676
簡単に	-11.1676
像	-11.1676
もらいたい	-11.1677
▁레인	-11.1677
何人か	-11.1681
ウォー	-11.1682
望んで	-11.1682
嫌いな	-11.1683
▁남쪽	-11.1684
▁わかったわ	-11.1686
▁何をする	-11.1686
を守れ	-11.1686
▁쳐다보	-11.1686
蹴	-11.1688
ベー	-11.169
還	-11.1691
滑	-11.1691
操縦	-11.1691
▁will	-11.1692
▁온갖	-11.1692
▁볼게요	-11.1692
▁スターク	-11.1692
▁놨	-11.1693
乗客	-11.1693
確保	-11.1693
▁놀라운	-11.1693
▁ビリー	-11.1693
▁어쩌지	-11.1694
締め	-11.1694
▁샘플	-11.1694
▁俺達の	-11.1694
▁結果	-11.1694
▁비극	-11.1695
換え	-11.1695
하자고	-11.1697
st	-11.1701
▁운명이	-11.1702
▁없겠지	-11.1703
知られ	-11.1704
▁脱出	-11.1704
に戻った	-11.1704
▁책임자	-11.1705
簡単だ	-11.1706
▁나한텐	-11.1708
▁入れ	-11.1708
氏は	-11.1709
▁セックス	-11.1709
▁先週	-11.1711
oo	-11.1712
やめろ	-11.1712
▁진짜야	-11.1714
29	-11.1715
▁때문이죠	-11.1717
깐	-11.1718
▁과학자	-11.1719
▁너무나	-11.172
は関係ない	-11.172
そう言う	-11.1721
▁お腹	-11.1722
隠して	-11.1722
▁있었잖아	-11.1722
▁하던데	-11.1722
振	-11.1722
▁期待	-11.1722
▁일반	-11.1723
▁わかって	-11.1723
チップ	-11.1725
家族を	-11.1725
▁걸고	-11.1728
▁思って	-11.1728
の半分	-11.1729
▁研究	-11.1731
▁주말	-11.1732
▁僕達	-11.1733
▁聞いてる	-11.1733
依頼人	-11.1734
이브	-11.1735
言葉は	-11.1735
▁선물이	-11.1735
場で	-11.1736
ガード	-11.1739
▁みんなが	-11.1739
▁いつから	-11.174
心に	-11.1741
合わせ	-11.1742
易	-11.1742
▁작가	-11.1742
룸	-11.1742
▁겪었	-11.1742
▁백악관	-11.1742
報酬	-11.1742
薄	-11.1742
助かる	-11.1743
▁アイリス	-11.1743
▁은퇴	-11.1744
▁국경	-11.1744
お待ち	-11.1745
行かなきゃ	-11.1746
祖父	-11.1746
▁名前を	-11.1746
▁알겠나	-11.1747
グレイ	-11.1748
▁체크	-11.1749
▁있겠어요	-11.1749
돼요	-11.1749
▁콘	-11.1752
▁知りたい	-11.1753
年代	-11.1754
▁길로	-11.1754
回も	-11.1758
▁처리할	-11.1761
がなかった	-11.1761
돼서	-11.1762
可愛い	-11.1763
に会いたい	-11.1764
安全な場所	-11.1765
許	-11.1766
苦しみ	-11.1767
女性が	-11.1768
から離れ	-11.1768
들이야	-11.1769
▁최악	-11.1772
クル	-11.1773
▁받게	-11.1775
コル	-11.1775
▁미친놈	-11.1775
▁꼬마야	-11.1776
▁정치	-11.1778
続けた	-11.1778
▁서장님	-11.1779
ウィル	-11.178
わかるか	-11.1781
育	-11.1783
▁知って	-11.1784
▁도구	-11.1785
錠	-11.1785
番だ	-11.1786
と思うが	-11.1786
するのに	-11.1787
台無しに	-11.1788
過ごした	-11.1788
管	-11.1788
適	-11.179
グラス	-11.1791
容	-11.1791
▁치고	-11.1792
▁갔었	-11.1792
▁電話を	-11.1793
▁돌아오지	-11.1793
▁이탈리아	-11.1794
▁죄책감	-11.1794
▁챔피언	-11.1794
▁오히려	-11.1794
気がする	-11.1795
▁어깨	-11.1795
▁반갑습니다	-11.1795
▁적응	-11.1796
捜し	-11.1796
▁用意	-11.1796
▁ほんと	-11.1797
かえ	-11.1797
▁금속	-11.1798
どう思う	-11.1799
▁기적	-11.1799
하더라	-11.1799
▁簡単に	-11.18
으면서	-11.1801
있었	-11.1803
▁成功	-11.1803
わかりません	-11.1803
うそ	-11.1804
▁마법사	-11.1806
走る	-11.1806
っぽい	-11.1806
두고	-11.1808
十分な	-11.1808
▁あの女	-11.1809
続	-11.1811
ことがない	-11.1812
▁파는	-11.1813
▁지하실	-11.1813
son	-11.1813
▁기본	-11.1814
▁聞こえた	-11.1815
▁성장	-11.1815
버트	-11.1815
▁벌어	-11.1816
母さん	-11.1817
했군요	-11.1817
暗闇	-11.1818
助	-11.1818
,268)}	-11.182
マネ	-11.1821
씨가	-11.1824
昨日	-11.1824
教えてくれた	-11.1826
▁게임을	-11.1828
is	-11.183
▁구원	-11.1831
どっち	-11.1831
▁저것	-11.1832
裏切り者	-11.1832
スカイ	-11.1832
飯	-11.1838
▁28	-11.1843
復	-11.1843
▁痛み	-11.1843
入れた	-11.1843
領	-11.1844
応	-11.1844
▁폭탄이	-11.1845
予測	-11.1845
設定	-11.1845
暗	-11.1846
▁애니	-11.1846
▁놔둬	-11.1846
▁子供達	-11.1848
▁전체가	-11.1848
▁동생을	-11.1849
生き残る	-11.1849
▁도청	-11.185
▁날려	-11.185
▁공범	-11.185
폴리	-11.1851
▁父上	-11.1851
▁단체	-11.1852
向かい	-11.1853
▁訓練	-11.1857
はいつ	-11.1857
▁빅	-11.186
▁残り	-11.186
休暇	-11.1862
▁止まれ	-11.1862
コブ	-11.1862
ェ	-11.1863
有名な	-11.1865
▁짓은	-11.1867
▁どうすればいい	-11.1867
▁한동안	-11.1869
▁주방	-11.1869
不幸	-11.1871
さないで	-11.1871
の向こう	-11.1873
を与えた	-11.1874
▁도착할	-11.1874
▁체서	-11.1874
エラ	-11.1875
▁시내	-11.1878
はないわ	-11.1882
색이	-11.1883
キャロル	-11.1885
トイレ	-11.1885
臭	-11.1885
시지	-11.1886
▁어쩌고	-11.1888
君たち	-11.1891
忘れた	-11.1891
話を聞いて	-11.1894
言ったこと	-11.1897
腰	-11.1897
짚	-11.1897
시가	-11.1897
▁드는	-11.1897
▁깨닫	-11.1897
困難	-11.1897
メートル	-11.1897
▁貴様	-11.1898
▁이것들	-11.1898
不能	-11.1898
海岸	-11.1898
るまで	-11.19
を受けて	-11.1901
公式	-11.1901
▁전략	-11.1901
▁위반	-11.1902
いいぞ	-11.1902
が必要なんだ	-11.1903
▁말했지	-11.1903
ほぼ	-11.1903
道は	-11.1904
バリー	-11.1904
そう思う	-11.1905
티스	-11.1905
でないと	-11.1907
▁그것에	-11.1909
▁선장	-11.191
▁됐고	-11.1911
子供が	-11.1911
▁올게요	-11.1912
▁한참	-11.1914
리오	-11.1914
▁조치	-11.1917
▁鼻	-11.1917
▁あの時	-11.192
やらない	-11.192
해야만	-11.1921
▁중지	-11.1922
▁종류의	-11.1923
の目	-11.1924
言っておく	-11.1924
我が	-11.1924
住民	-11.1924
▁중이다	-11.1926
▁주식	-11.1926
書いてある	-11.1926
イエス	-11.1927
▁달렸	-11.1927
に乗る	-11.1927
▁됐는데	-11.1927
好きじゃない	-11.1928
構	-11.1928
ベリー	-11.1931
レーン	-11.1931
법을	-11.1932
方が良い	-11.1933
ヶ月前	-11.1935
▁酒	-11.1936
싸	-11.1937
▁チェック	-11.1937
▁心配しないで	-11.1937
だよな	-11.1938
▁놓쳤	-11.1939
▁下がって	-11.1939
꼬	-11.1939
置け	-11.194
였다고	-11.194
現在	-11.194
分だ	-11.194
ところに	-11.194
ダイ	-11.1941
投	-11.1942
情報が	-11.1942
▁팀을	-11.1942
▁맞은	-11.1943
▁連中	-11.1943
▁돈도	-11.1946
悪いこと	-11.1947
▁모른	-11.1947
発信	-11.1949
築	-11.1949
펄	-11.1949
パターン	-11.1949
意志	-11.1949
▁핸드폰	-11.1949
ゴメン	-11.1951
願う	-11.1951
▁エイミー	-11.1953
黙	-11.1953
▁子供が	-11.1954
▁실행	-11.1954
▁누구를	-11.1955
ったり	-11.1955
▁one	-11.1957
ころ	-11.1958
いいけど	-11.1958
サイズ	-11.1959
が一番	-11.1964
おうと	-11.1965
▁なんとか	-11.1967
手伝い	-11.1968
▁内	-11.1969
▁母は	-11.1969
百	-11.1969
▁모래	-11.197
疑	-11.1971
物質	-11.1974
▁문서	-11.1975
아이	-11.1976
若	-11.1976
▁뱀	-11.1976
してて	-11.1977
▁지워	-11.198
▁필요로	-11.1981
600	-11.1982
部長	-11.1982
に従う	-11.1983
奴を	-11.1983
▁지도자	-11.1984
들아	-11.1984
は彼	-11.1985
▁それか	-11.1986
▁있대	-11.1987
休んで	-11.1987
からさ	-11.1987
▁녀석을	-11.1987
▁녀석은	-11.1988
▁괴	-11.1988
▁자원	-11.1989
▁적어	-11.199
▁묻지	-11.199
▁連邦	-11.1991
갔어	-11.1994
周	-11.1994
▁27	-11.1995
빙	-11.1996
립니다	-11.1997
줬잖아	-11.1998
があるから	-11.1998
왔던	-11.1998
▁正気	-11.1998
執	-11.2
スーパー	-11.2
帯	-11.2
灰	-11.2001
쾌	-11.2001
粉	-11.2001
弁	-11.2001
恩	-11.2001
▁어두운	-11.2002
机	-11.2002
湖	-11.2002
▁제이콥	-11.2002
隔離	-11.2002
賛成	-11.2002
▁가깝	-11.2002
▁전에는	-11.2002
▁気をつけろ	-11.2002
▁상징	-11.2003
をつけて	-11.2003
うな	-11.2003
▁エリック	-11.2003
▁필름	-11.2004
▁뒤쪽	-11.2004
▁이리와	-11.2004
感染	-11.2005
▁창피	-11.2005
カス	-11.2005
거리는	-11.2005
死刑	-11.2006
▁나왔어요	-11.2006
▁돌아가셨	-11.2007
上げた	-11.2007
▁마술	-11.2007
十	-11.2008
済んだ	-11.2009
▁재산	-11.201
병을	-11.201
▁ひとつ	-11.2012
▁서버	-11.2012
▁더그	-11.2013
を知りたい	-11.2014
こない	-11.2014
戦った	-11.2015
▁部下	-11.2016
▁데려갔	-11.2017
てるの	-11.2017
▁끝나고	-11.2018
▁고든	-11.2018
▁윌리엄	-11.2019
▁永遠に	-11.2019
あんたの	-11.202
▁患者	-11.2021
払	-11.2021
▁고대	-11.2023
▁일할	-11.2027
▁죽이면	-11.2029
▁필요합니다	-11.2029
当時	-11.2031
▁어디든	-11.2033
はあるか	-11.2035
▁この場所	-11.2035
の事件	-11.2037
와는	-11.2038
심을	-11.204
の人間	-11.2041
た時	-11.2042
探してる	-11.2042
▁저와	-11.2044
テル	-11.2044
ベスト	-11.2045
드를	-11.2047
▁목표물	-11.2047
▁핵	-11.2049
협	-11.205
▁非	-11.2051
▁다쳤	-11.2051
私と	-11.2052
▁なのに	-11.2052
開けて	-11.2052
짱	-11.2053
棒	-11.2054
被	-11.2054
ラボ	-11.2054
▁넣었	-11.2054
▁괜히	-11.2054
▁테일러	-11.2054
皮膚	-11.2054
뿔	-11.2054
▁느낄	-11.2054
うんざり	-11.2054
▁매튜	-11.2054
男と	-11.2055
留守	-11.2055
症状	-11.2055
▁피곤해	-11.2055
強制	-11.2055
▁トミー	-11.2055
するように	-11.2056
発射	-11.2056
▁무척	-11.2056
▁맞추	-11.2057
▁혹은	-11.2057
▁고칠	-11.2058
▁처형	-11.2058
▁断	-11.2058
面会	-11.2059
▁첩자	-11.2059
暗い	-11.206
▁해주세요	-11.2061
疲れた	-11.2061
리스트	-11.2061
▁약간의	-11.2062
おき	-11.2062
どうでもいい	-11.2064
▁信じる	-11.2065
していて	-11.2065
▁매번	-11.2065
同様	-11.2067
償	-11.2067
ハウス	-11.2068
▁및	-11.2069
있지	-11.207
ie	-11.207
▁ケイト	-11.2071
判る	-11.2072
받을	-11.2077
息子を	-11.2079
주실래요	-11.2081
無駄	-11.2083
▁자유를	-11.2083
▁石	-11.2084
보면	-11.2085
ことじゃない	-11.2089
かれる	-11.209
▁저희는	-11.2092
▁사무실에서	-11.2095
▁따라서	-11.2096
▁판사	-11.2096
▁둘러	-11.2099
▁훔쳤	-11.2101
▁どこへ行く	-11.2102
を確保	-11.2105
▁존재하지	-11.2105
巨人	-11.2106
▁중심	-11.2106
▁just	-11.2107
▁귀여운	-11.2107
即	-11.2107
へようこそ	-11.2107
▁들여보내	-11.2107
▁멍청하	-11.2107
▁グレン	-11.2107
復活	-11.2107
▁베즌	-11.2107
意思	-11.2108
▁패턴	-11.2108
ってくれた	-11.2108
응	-11.2109
▁데이브	-11.211
らないで	-11.211
▁요새	-11.2111
消し	-11.2112
当局	-11.2114
십니다	-11.2114
なもの	-11.2119
を助け	-11.2122
どうしたの	-11.2122
▁イエス	-11.2123
▁붙잡	-11.2124
ic	-11.2124
連	-11.2125
▁ルーシー	-11.2125
▁テロリスト	-11.2126
▁モー	-11.2127
トロ	-11.2127
▁좋겠네요	-11.2127
見せる	-11.2127
하겠지만	-11.2128
▁중요해	-11.213
▁기어	-11.2131
▁사무실에	-11.2132
の家に	-11.2132
▁대회	-11.2132
▁달린	-11.2133
していました	-11.2134
▁そう思う	-11.2134
▁本気で	-11.2134
を守って	-11.2135
▁이상의	-11.2136
▁結構	-11.2137
動いて	-11.2137
▁안되는	-11.2137
▁따님	-11.2137
▁방식이	-11.2138
嘘をついて	-11.2139
ゼロ	-11.214
▁마리아	-11.214
張り	-11.2141
我ら	-11.2141
▁수단	-11.2141
▁de	-11.2141
事はない	-11.2142
もしない	-11.2143
▁父が	-11.2143
申し	-11.2145
複雑	-11.2145
出来事	-11.2148
▁심해	-11.2149
▁봤나	-11.2151
▁눈물	-11.2151
かれて	-11.2152
生き物	-11.2154
▁찾아오	-11.2154
ものよ	-11.2155
の結果	-11.2157
헤	-11.2158
縁	-11.2159
遅れて	-11.2159
▁うるさい	-11.216
캠	-11.216
▁싫어하는	-11.216
休憩	-11.216
勤務	-11.216
▁지붕	-11.2161
▁일해	-11.2161
▁토끼	-11.2161
블록	-11.2162
▁생명체	-11.2162
▁거짓말쟁이	-11.2162
とは思えない	-11.2163
끈	-11.2164
▁사건의	-11.2164
▁들으	-11.2167
知らず	-11.2168
▁전과	-11.2168
▁괜찮습니다	-11.2169
▁안경	-11.217
▁자네에게	-11.2171
使命	-11.2172
がありません	-11.2174
言わせ	-11.2174
中毒	-11.2176
るつもり	-11.2176
▁무지	-11.2177
られます	-11.2178
▁푹	-11.2178
해질	-11.2179
▁뒤집어	-11.2182
誘	-11.2182
▁저랑	-11.2184
▁고마	-11.2184
▁ボート	-11.2186
이었고	-11.2187
학년	-11.2189
보니	-11.219
サイ	-11.219
▁인기	-11.219
85	-11.2192
▁거겠지	-11.2193
치가	-11.2194
▁そういうこと	-11.2195
地上	-11.2197
▁갔었어	-11.22
軍人	-11.22
▁それまで	-11.2201
を通して	-11.2203
大人	-11.2204
▁안보	-11.2205
ミア	-11.2205
悲し	-11.2205
수는	-11.2209
子ども	-11.221
じゃあ	-11.221
촌	-11.221
▁감옥에서	-11.2211
▁의견	-11.2212
▁裁判	-11.2212
の方は	-11.2213
する前に	-11.2213
従業員	-11.2214
잇	-11.2214
迷惑	-11.2214
告発	-11.2214
ターゲット	-11.2214
悪党	-11.2215
▁짐작	-11.2216
▁때문이지	-11.2217
それだけ	-11.222
▁何の話	-11.2223
喋	-11.2224
▁사태	-11.2224
▁도망쳤	-11.2225
僕ら	-11.2225
寝てる	-11.2225
説	-11.2225
▁殺された	-11.2225
▁大した	-11.2227
었는지	-11.2229
を追い	-11.2229
one	-11.223
▁좆	-11.2232
▁예술	-11.2232
▁쌓	-11.2235
▁전화할게	-11.2235
の様に	-11.2235
が出た	-11.2236
▁모건	-11.2237
おる	-11.2237
▁神様	-11.2238
家族が	-11.2238
되기	-11.224
▁間違いなく	-11.2241
息を	-11.2243
바이	-11.2245
▁너처럼	-11.2246
わかっている	-11.2247
▁없게	-11.2248
▁거인	-11.2248
텐	-11.225
▁웃기	-11.225
責任を	-11.2254
▁행운	-11.2255
望んだ	-11.2256
議会	-11.226
そうか	-11.2261
댔	-11.2261
▁あなたたち	-11.2262
▁特別な	-11.2263
しておく	-11.2264
스턴	-11.2266
▁인정하	-11.2266
使	-11.2266
자와	-11.2267
▁残念ながら	-11.2268
▁ついに	-11.2268
▁주려고	-11.2268
告白	-11.2268
限界	-11.2268
似	-11.2268
하겠어요	-11.2269
▁유럽	-11.2269
▁끝낼	-11.2269
▁シスター	-11.227
怪しい	-11.227
通りの	-11.227
▁運	-11.2271
▁성격	-11.2271
クー	-11.2275
イス	-11.2277
주시겠어요	-11.2277
▁평가	-11.2278
줬어요	-11.2279
▁아니겠지	-11.2281
▁보내줘	-11.2281
▁선장님	-11.2282
셨습니다	-11.2282
▁こいつら	-11.2286
静かに	-11.2287
▁생각했는데	-11.2287
マスター	-11.2288
내는	-11.2288
▁강요	-11.2289
뿐	-11.2291
▁頼むよ	-11.2292
▁여기요	-11.2293
▁목격	-11.2293
것이	-11.2293
▁사마리아인	-11.2295
みたいだな	-11.2295
▁않으	-11.2295
▁번호를	-11.2295
▁難しい	-11.2298
▁걸렸어	-11.2298
▁この家	-11.2299
いられる	-11.23
告	-11.23
▁そして今	-11.23
▁되게	-11.2302
▁나처럼	-11.2302
▁頑張って	-11.2307
▁질문에	-11.2307
▁업	-11.2311
▁보내고	-11.2312
寝室	-11.2312
▁갔지	-11.2313
止まって	-11.2314
たって	-11.2314
宿	-11.2315
▁뒤져	-11.2318
腐	-11.2318
港	-11.2319
플라	-11.2319
敗	-11.2321
和	-11.2321
▁로리	-11.2321
ビジター	-11.2322
肺	-11.2322
バウアー	-11.2322
▁익숙해	-11.2322
▁칭찬	-11.2322
悲劇	-11.2322
▁너흰	-11.2322
エレベーター	-11.2322
助言	-11.2322
▁비명	-11.2322
番組	-11.2323
釣り	-11.2323
ビショップ	-11.2323
kg	-11.2323
結構	-11.2323
DC	-11.2325
崩壊	-11.2325
▁客	-11.2325
ナルド	-11.2325
確実に	-11.2326
▁작성	-11.2327
▁공유	-11.2327
▁믿어야	-11.2327
▁빙	-11.2328
違って	-11.2328
났어	-11.2328
▁참석	-11.2329
ここを	-11.233
渡した	-11.2331
のよね	-11.2332
▁소릴	-11.2335
育った	-11.2337
▁그런가	-11.2338
演	-11.2339
▁トーマス	-11.2339
▁누구보다	-11.2339
▁가라고	-11.2342
▁それじゃあ	-11.2344
▁위해서요	-11.2344
▁개를	-11.2345
었나	-11.2345
▁자식이	-11.2346
やつだ	-11.2346
はどうした	-11.2347
▁그랬을	-11.2348
49	-11.2349
何かある	-11.235
あい	-11.235
▁장애	-11.2351
▁남을	-11.2351
家に帰る	-11.2351
お互い	-11.2352
誰でも	-11.2352
끼리	-11.2353
ッジ	-11.2355
▁불러요	-11.2357
▁들으면	-11.2358
を追って	-11.2359
▁대가를	-11.2359
▁공간	-11.2359
▁죄수	-11.236
▁メッセージ	-11.2362
▁남자들	-11.2362
▁科学	-11.2364
か月	-11.2364
▁行方不明	-11.2366
捨てる	-11.2366
▁基地	-11.2366
ていない	-11.2366
場に	-11.2367
外に	-11.2368
輪	-11.2369
▁새라	-11.237
▁테니까요	-11.237
の音	-11.237
良くなる	-11.2371
ウェル	-11.2372
▁거군요	-11.2372
雑	-11.2373
を教えて	-11.2375
놨어요	-11.2375
奴らを	-11.2375
큐	-11.2376
被害	-11.2376
巡査	-11.2376
メリッサ	-11.2376
おかしな	-11.2376
信仰	-11.2376
▁겨울	-11.2376
잖습니까	-11.2376
▁ジェイク	-11.2376
▁테러리스트	-11.2376
께선	-11.2376
▁나쁘	-11.2377
▁정찰	-11.2378
代理	-11.2378
▁항복	-11.238
可能性がある	-11.238
俺だ	-11.2382
守って	-11.2383
▁밀러	-11.2384
▁놀랄	-11.2384
笑	-11.2384
が居る	-11.2385
▁楽しんで	-11.2387
▁조카	-11.2388
▁이곳을	-11.2388
待った	-11.2388
▁강간	-11.2389
酒を	-11.2389
콜	-11.239
짐	-11.239
シャン	-11.2392
どちら	-11.2393
있습니다	-11.2396
ドイツ	-11.2397
▁저들은	-11.2398
▁땅에	-11.24
여서	-11.2408
더스	-11.2408
外出	-11.2409
▁누구랑	-11.2409
쳐서	-11.2409
▁強盗	-11.241
繰り返し	-11.2412
スティ	-11.2412
分かります	-11.2417
してたんだ	-11.2418
버그	-11.2418
サラ	-11.242
실래요	-11.242
ut	-11.2421
▁있었지만	-11.2422
暇	-11.2422
▁향해	-11.2424
▁저걸	-11.2426
▁거였어	-11.2426
▁델	-11.2427
予	-11.2428
ハート	-11.2428
て下さい	-11.2429
▁준비됐	-11.243
▁서두르	-11.2431
▁트렁크	-11.2431
雷	-11.2431
皇帝	-11.2431
虐待	-11.2431
▁get	-11.2431
▁취급	-11.2431
関与	-11.2431
中央	-11.2431
決まり	-11.2431
解除	-11.2431
ゴードン	-11.2431
二度と	-11.2431
▁何のこと	-11.2432
▁彼女には	-11.2432
▁カイル	-11.2432
▁있어서요	-11.2432
and	-11.2432
▁Oh	-11.2432
の仕業	-11.2434
モデル	-11.2434
▁태우	-11.2435
▁지금쯤	-11.2436
▁평화를	-11.2437
リオ	-11.2438
했단	-11.2439
▁そのとおり	-11.244
胸	-11.244
の戦い	-11.2441
そいつ	-11.2443
ビーチ	-11.2443
誰かに	-11.2444
全然	-11.2445
アス	-11.2445
彼と	-11.2448
▁スタン	-11.245
一部	-11.245
▁後悔	-11.2451
▁武器を	-11.2451
▁누군데	-11.2454
▁どういう意味だ	-11.2456
一つの	-11.2456
▁굳이	-11.2456
子を	-11.2458
냐고요	-11.2458
ブラウン	-11.2459
까봐	-11.2461
달라	-11.2461
されてない	-11.2462
▁何人	-11.2462
用心	-11.2462
せいで	-11.2463
▁단서를	-11.2465
▁一生	-11.2466
▁今回	-11.2468
▁입었	-11.2469
込	-11.2471
▁뒤에서	-11.2472
▁주마	-11.2472
▁예의	-11.2472
▁どうかした	-11.2473
▁역할	-11.2477
握	-11.2479
厳	-11.2479
裁判所	-11.2479
▁ペン	-11.2481
▁犠牲者	-11.2482
▁의식	-11.2482
園	-11.2482
推	-11.2484
럭	-11.2485
ちまった	-11.2485
삭	-11.2485
けれど	-11.2486
上がる	-11.2486
▁want	-11.2486
▁잔뜩	-11.2486
合図	-11.2486
優先	-11.2486
▁환경	-11.2487
▁괴롭히	-11.2487
▁물고기	-11.2487
会いたかった	-11.2488
運動	-11.2488
▁세탁	-11.2489
▁찾아낼	-11.2489
▁크고	-11.2489
▁거시기	-11.2489
▁변명	-11.249
体験	-11.249
▁集中	-11.2491
覆	-11.2491
▁박살	-11.2491
▁언론	-11.2493
▁센	-11.2494
せろ	-11.2495
▁않았습니다	-11.2495
▁警告	-11.25
▁ありません	-11.2501
伝えてくれ	-11.2501
魔	-11.2501
家族に	-11.2501
複雑な	-11.2501
検	-11.2504
▁ロック	-11.2506
▁여왕님	-11.2507
学校に	-11.2508
필드	-11.2511
無線	-11.2513
離せ	-11.2513
▁今も	-11.2514
来いよ	-11.2514
来週	-11.2514
▁통해서	-11.2516
내고	-11.2516
▁聞こえるか	-11.2516
적이고	-11.2516
▁안전하지	-11.2517
▁하자고	-11.2518
주시면	-11.2518
▁花	-11.2519
フィルム	-11.2521
▁보군	-11.2521
하든	-11.2522
▁안나	-11.2522
▁학교에서	-11.2523
ラブ	-11.2523
스카	-11.2527
▁네놈	-11.2529
スイッチ	-11.253
세기	-11.2531
▁비밀이	-11.2532
이기도	-11.2534
▁터지	-11.2535
残った	-11.2538
陰	-11.2538
ファック	-11.2539
쇠	-11.2539
▁보니까	-11.254
▁≪(	-11.2541
▁자랑스러워	-11.2541
結論	-11.2541
心臓	-11.2542
▁서비스	-11.2543
▁밟	-11.2543
夫婦	-11.2543
▁気に入った	-11.2543
▁해줘요	-11.2543
▁マリー	-11.2546
▁周り	-11.2547
署名	-11.2548
▁이빨	-11.2548
▁何が起きた	-11.2549
▁로즈	-11.2551
▁奴らの	-11.2551
諦め	-11.2552
▁주제	-11.2553
▁소식은	-11.2554
数学	-11.2557
▁불가능하	-11.2559
▁내면	-11.256
すんだ	-11.2561
申し出	-11.2563
噛	-11.2566
何者だ	-11.2566
▁잘하고	-11.2566
になれば	-11.2567
▁ここに来た	-11.2567
▁俺たちの	-11.2568
を取った	-11.2568
▁ナイフ	-11.257
▁首	-11.257
▁나와요	-11.2572
▁수집	-11.2572
▁숨겼	-11.2572
マッ	-11.2573
▁없거든	-11.2574
▁제정신이	-11.2575
궁	-11.2575
中身	-11.2575
▁다만	-11.2577
을때	-11.2577
▁둘을	-11.2581
人間を	-11.2581
▁순수	-11.2581
そうとした	-11.2581
었군	-11.2582
싶	-11.2584
▁당한	-11.2584
降りる	-11.2585
하느라	-11.2586
天国	-11.2586
▁動物	-11.2588
の言葉	-11.2589
警官が	-11.2589
継	-11.2589
▁ローマ	-11.259
▁회사에	-11.2591
▁100%	-11.2591
ものに	-11.2593
▁노래를	-11.2593
を呼び	-11.2593
▁없이는	-11.2594
修	-11.2595
쌍	-11.2596
泥	-11.2596
렛	-11.2596
$	-11.2596
▁네트워크	-11.2596
듬	-11.2596
▁초콜릿	-11.2596
▁에리카	-11.2596
衝突	-11.2596
しろよ	-11.2597
双子	-11.2597
▁모험	-11.2599
ブリ	-11.26
ご覧	-11.2601
困	-11.2601
▁기능	-11.2601
▁고작	-11.2601
て欲しい	-11.2602
を送って	-11.2603
▁연락을	-11.2604
▁포터	-11.2604
ここに来た	-11.2605
▁사막	-11.2605
▁대통령이	-11.2607
보렴	-11.2607
てくれた	-11.2607
家庭	-11.2608
外れ	-11.2608
▁누구라도	-11.261
▁パリ	-11.261
▁그놈이	-11.2611
▁결과를	-11.2614
部の	-11.2615
の件で	-11.2617
▁기술을	-11.2618
▁케이시	-11.2622
が来て	-11.2624
に戻り	-11.2626
らどうだ	-11.2627
▁보네	-11.2627
▁何だよ	-11.2629
▁삶은	-11.263
トリー	-11.2631
▁これらの	-11.2632
▁약속해	-11.2633
▁탐	-11.2634
▁되었다	-11.2634
はずだった	-11.2635
▁36	-11.2637
▁지키고	-11.2638
遺	-11.2638
装置を	-11.2639
▁쓰면	-11.2643
渡し	-11.2643
▁자체	-11.2645
▁終わり	-11.2645
課	-11.2648
絶対に	-11.2649
▁偶然	-11.2649
ガル	-11.2649
▁コイツ	-11.2649
を変えた	-11.2651
禁	-11.2651
談	-11.2652
▁어딨지	-11.2652
▁엘리베이터	-11.2652
됬	-11.2652
考慮	-11.2652
環境	-11.2652
処刑	-11.2652
派遣	-11.2652
復帰	-11.2652
ネットワーク	-11.2653
▁작별	-11.2653
は全て	-11.2653
▁제국	-11.2654
▁연설	-11.2655
▁없었지	-11.2655
▁음식을	-11.2655
を失い	-11.2656
▁간단하	-11.2656
▁人質	-11.2656
▁希望	-11.2658
사랑	-11.2659
▁승객	-11.2659
▁小さい	-11.266
▁자극	-11.266
話題	-11.2662
요원	-11.2662
隠れ家	-11.2662
容疑	-11.2662
オフ	-11.2663
青い	-11.2664
▁병신	-11.2664
すな	-11.2665
PC	-11.2666
解決する	-11.2667
するべき	-11.2668
했니	-11.2668
▁언젠가는	-11.2668
▁불타	-11.2669
経営	-11.2671
電話番号	-11.2672
다며	-11.2675
付き合って	-11.2675
▁빠르게	-11.2675
呼び出し	-11.2676
늘	-11.2677
▁밤이	-11.2681
제를	-11.2681
内で	-11.2681
▁とっても	-11.2682
開け	-11.2684
▁같았어요	-11.2684
▁目標	-11.2685
심이	-11.2685
▁マル	-11.2686
브리	-11.2686
すみません	-11.2688
どうかな	-11.2688
▁느껴지	-11.2688
動かない	-11.269
明らか	-11.2692
ーラ	-11.2692
▁의문	-11.2693
分る	-11.2693
▁건배	-11.2696
▁남들	-11.2697
彼らが	-11.2697
▁ダリル	-11.2699
▁언	-11.2701
って言う	-11.2701
▁임무는	-11.2703
ドアを開け	-11.2703
▁남겼	-11.2703
注	-11.2704
束	-11.2708
균	-11.2708
の下で	-11.2708
連れてきた	-11.2709
▁낫지	-11.2709
ベイビー	-11.271
해졌	-11.271
判らない	-11.271
現れ	-11.271
▁더욱	-11.2711
▁퇴	-11.2712
▁탐정	-11.2712
たちの	-11.2714
▁음성	-11.2715
最後まで	-11.2715
▁32	-11.2715
お友達	-11.2716
関係を	-11.2718
の妻	-11.2718
▁죽음이	-11.272
▁いやいや	-11.272
期間	-11.2722
책을	-11.2722
爆弾を	-11.2725
▁유인	-11.2725
業者	-11.2725
▁남기	-11.2726
チビ	-11.2726
▁사기	-11.2731
殺人者	-11.2732
▁꼴이	-11.2732
▁예를	-11.2733
▁참여	-11.2733
を待つ	-11.2733
寄せ	-11.2734
▁상처를	-11.2735
▁申し訳ない	-11.2735
군이	-11.2736
置いた	-11.2737
は終わりだ	-11.2738
▁상황에서	-11.274
んぞ	-11.274
であること	-11.274
▁ちょっとした	-11.2741
▁밑	-11.2743
ザン	-11.2743
を言う	-11.2743
誤	-11.2744
▁얘기야	-11.2745
を救った	-11.2746
▁その前に	-11.2746
▁半沢	-11.2747
確認した	-11.2748
▁聞き	-11.2748
▁존중	-11.2748
存在しない	-11.2749
▁프리	-11.2749
テロリスト	-11.275
▁가져왔어	-11.2751
付いた	-11.2752
▁입구	-11.2753
ブリッジ	-11.2753
▁お願いだから	-11.2753
받고	-11.2754
年後	-11.2756
似てる	-11.2756
人間に	-11.2757
▁동쪽	-11.2757
筈だ	-11.2757
▁おまえの	-11.2758
▁유진	-11.2759
を送る	-11.2761
▁そのために	-11.2762
했겠지	-11.2763
っています	-11.2763
死なない	-11.2763
임을	-11.2764
▁두바쿠	-11.2765
承認	-11.2765
王女	-11.2765
議長	-11.2765
▁슬퍼	-11.2766
▁후보	-11.2766
▁시신을	-11.2766
▁어린애	-11.2767
委員会	-11.2767
済ま	-11.2767
一瞬	-11.2768
坊や	-11.2768
▁분리	-11.2768
▁추천	-11.2769
何も知らない	-11.277
▁out	-11.2771
▁彼女も	-11.2771
ファイルを	-11.2771
▁イライアス	-11.2776
を殺そうと	-11.2777
35	-11.2778
以外の	-11.2778
いたします	-11.278
▁만드	-11.2781
てくる	-11.2781
▁씨를	-11.2782
▁순간이	-11.2782
당하고	-11.2782
▁時間は	-11.2782
▁누구세요	-11.2786
▁이상은	-11.2786
▁分かったよ	-11.2787
どの	-11.2789
に向かう	-11.2794
▁뿐이죠	-11.2794
▁몇몇	-11.2795
▁세우	-11.2795
足りない	-11.2796
▁않기	-11.2797
▁산책	-11.2797
▁無線	-11.2798
▁모셔	-11.28
か知ってる	-11.28
われて	-11.2801
医学	-11.2801
▁나오면	-11.2802
一度も	-11.2803
メー	-11.2803
変える	-11.2803
건가요	-11.2806
▁アナ	-11.2807
の神	-11.2808
へと	-11.2809
をかけて	-11.281
▁된다는	-11.2811
▁特別	-11.2813
隠してる	-11.2814
▁運転	-11.2815
▁言葉	-11.2816
会おう	-11.2816
▁하셨죠	-11.2816
▁胸	-11.2816
▁사실이야	-11.2817
番目の	-11.2818
勝手	-11.2818
▁멋지	-11.2819
暗号	-11.282
벅	-11.2821
畜生	-11.2822
좁	-11.2822
共和国	-11.2822
▁덱스터	-11.2822
余裕	-11.2822
顧客	-11.2822
▁간단한	-11.2822
▁사기꾼	-11.2822
乗り越え	-11.2822
宝石	-11.2822
商品	-11.2822
▁ドクター	-11.2822
▁폭풍	-11.2822
▁그랬다	-11.2823
▁가져갈	-11.2824
▁레스터	-11.2824
▁그림이	-11.2824
▁검토	-11.2824
▁音楽	-11.2825
▁주인이	-11.2826
ーナ	-11.2826
手掛かり	-11.2826
▁ルーク	-11.2827
英国	-11.2827
やってた	-11.2827
▁そのうち	-11.2828
テー	-11.2829
メイン	-11.2829
▁풀어주	-11.2829
モーガン	-11.283
범죄	-11.2831
▁무엇이	-11.2832
▁there	-11.2832
▁両方	-11.2833
▁이름도	-11.2833
▁없음	-11.2834
▁존이	-11.2836
体に	-11.2837
シート	-11.2837
ダグ	-11.2837
▁パパが	-11.2838
何で	-11.2839
▁수영	-11.2839
▁발견한	-11.284
抱	-11.284
確かに	-11.2842
奇妙	-11.2842
分後に	-11.2843
▁명단	-11.2843
▁넷	-11.2844
▁경력	-11.2845
正しく	-11.2845
もので	-11.2846
▁大丈夫だよ	-11.2846
비를	-11.2848
짜	-11.2848
▁않잖아	-11.2849
言い方	-11.2849
ヘル	-11.285
▁국민	-11.285
研究所	-11.285
▁인간을	-11.2851
했더니	-11.2854
いいな	-11.2854
出てきた	-11.2855
▁なぜ私	-11.2855
破滅	-11.2856
▁뿐이다	-11.2857
▁いいだろう	-11.2857
▁지났	-11.2858
級	-11.2858
▁침실	-11.2859
▁작전을	-11.2861
思わなかった	-11.2862
者と	-11.2867
聖	-11.2867
衛星	-11.2868
向かってる	-11.2869
▁聞きたい	-11.2871
▁우연	-11.2872
▁망쳐	-11.2872
지게	-11.2873
気にする	-11.2873
▁살려줘	-11.2873
ここに来て	-11.2873
▁맡았	-11.2873
▁이번에는	-11.2873
▁分かったか	-11.2876
▁後は	-11.2876
生活を	-11.2878
▁서서	-11.2878
▁웃기지	-11.2878
怒	-11.2878
節	-11.2879
셜	-11.2879
杖	-11.2879
▁아버진	-11.2879
資格	-11.2879
▁범행	-11.2879
▁아드님	-11.2879
▁내용	-11.2879
▁怪我	-11.2881
▁아빤	-11.2881
公開	-11.2881
運び	-11.2882
▁놈이야	-11.2882
▁버튼	-11.2882
▁포함해서	-11.2883
봤자	-11.2883
ジム	-11.2883
何処	-11.2883
目覚め	-11.2883
주의자	-11.2883
▁군대를	-11.2885
▁적을	-11.2887
要らない	-11.2887
▁나요	-11.2888
23	-11.2888
ペット	-11.2889
▁可愛い	-11.289
▁アンディ	-11.2892
娘を	-11.2893
人よ	-11.2893
の死体	-11.2894
▁싶진	-11.2894
▁建物	-11.2895
▁들러	-11.2896
やっている	-11.2897
の友達	-11.2898
▁자랑스럽	-11.2898
自分たち	-11.2899
いられない	-11.29
▁地下	-11.29
だったのか	-11.29
ハンク	-11.2901
▁일하러	-11.2903
까지는	-11.2903
▁나가면	-11.2903
出せる	-11.2903
▁차례야	-11.2905
存在する	-11.2906
다구	-11.2906
これから	-11.2907
▁あの人	-11.2909
▁천국	-11.291
フラン	-11.2911
られました	-11.2913
世界で	-11.2917
ウソ	-11.2918
정을	-11.292
見てきた	-11.292
▁お嬢さん	-11.2921
当たり	-11.2921
▁間違いない	-11.2921
▁ギ	-11.2922
나봐	-11.2923
증이	-11.2924
젊	-11.2924
▁ジュリア	-11.2925
正体を	-11.2925
▁멀리사	-11.2927
軍事	-11.2929
出来ません	-11.2931
大勢	-11.2931
いえ	-11.2931
픈	-11.2932
そんなことを	-11.2933
김	-11.2934
仮	-11.2935
創造	-11.2935
컷	-11.2935
몽	-11.2936
▁喜んで	-11.2936
壊れた	-11.2936
▁걔들	-11.2936
▁노트북	-11.2936
ステージ	-11.2936
▁공화국	-11.2936
▁조만간	-11.2936
▁애초에	-11.2936
▁있었나요	-11.2936
중이	-11.2936
▁킬러	-11.2936
保管	-11.2936
▁레이첼	-11.2937
海賊	-11.2937
相当	-11.2937
▁케빈	-11.2937
以外に	-11.2938
원을	-11.2939
▁회수	-11.2939
▁死者	-11.2939
の件は	-11.2939
▁頼むから	-11.294
▁국제	-11.294
브로	-11.2941
国王	-11.2941
くな	-11.2941
▁もう一つ	-11.2942
人です	-11.2943
▁누르	-11.2943
▁엄청나게	-11.2944
クローン	-11.2946
95	-11.2948
は無かった	-11.2949
▁격리	-11.2949
▁サイ	-11.2951
ンド	-11.2951
뿐이에요	-11.2951
わずか	-11.2952
▁소원	-11.2952
▁살게	-11.2953
▁부족해	-11.2955
パラ	-11.2956
を食べ	-11.2958
▁하겠어	-11.2958
▁병사들	-11.2958
▁행복한	-11.296
▁봤잖아	-11.296
▁위기	-11.2961
▁思ってる	-11.2961
만큼은	-11.2963
記	-11.2963
죽음의	-11.2963
殺して	-11.2964
▁불가능한	-11.2965
に行くの	-11.2967
▁돌아와서	-11.2968
▁아내와	-11.2969
▁明日の	-11.2974
したいんだ	-11.2974
▁수정	-11.2975
▁떠나는	-11.2978
液	-11.298
ぶっ	-11.298
キャン	-11.298
我々に	-11.2982
加え	-11.2983
北部	-11.2983
▁俺達が	-11.2983
記念	-11.2983
銀	-11.2985
欲しいんだ	-11.2985
我	-11.2986
回目	-11.2987
ロウ	-11.2988
でもいい	-11.2988
▁どうすれば	-11.2989
数年	-11.299
じゃないのか	-11.299
▁상태로	-11.2991
好きだった	-11.2991
▁본데	-11.2991
▁측	-11.2992
普	-11.2993
▁みなさん	-11.2994
兄貴	-11.2994
インタビュー	-11.2994
ハンニバル	-11.2994
▁배고파	-11.2994
思考	-11.2994
対象	-11.2994
迎え	-11.2995
保安官	-11.2995
▁추적할	-11.2995
▁메이슨	-11.2996
▁我慢	-11.2996
正面	-11.2997
必要なの	-11.2997
▁순찰	-11.2997
▁뛰어난	-11.2998
国際	-11.2998
ig	-11.2998
▁大人	-11.2999
▁뻗	-11.3
뜻	-11.3
▁턱	-11.3001
건지	-11.3004
今度	-11.3004
▁주소를	-11.3006
ってことだ	-11.301
▁돔	-11.3013
人だった	-11.3016
そのまま	-11.3016
人生で	-11.3017
▁비용	-11.3018
스런	-11.3021
じゃないぞ	-11.3021
▁달아	-11.3021
ディス	-11.3023
▁平和	-11.3024
質問は	-11.3024
▁止める	-11.3026
女だ	-11.3027
万人	-11.3028
▁이용	-11.3028
人質	-11.3029
▁화면	-11.3029
▁됐네	-11.3029
▁지식	-11.3031
▁何かが	-11.3032
やつら	-11.3034
▁준비를	-11.3034
過ぎて	-11.3037
危ない	-11.3038
どこへ	-11.3038
たいのか	-11.3038
▁쪽이	-11.3038
かもね	-11.3039
▁영주	-11.304
夢を	-11.3041
夜に	-11.3042
コース	-11.3043
なきゃいけない	-11.3044
そうする	-11.3044
시네요	-11.3044
忘れない	-11.3044
▁그러죠	-11.3045
が殺された	-11.3045
주마	-11.3046
悔	-11.3046
でなく	-11.3048
かん	-11.3049
▁毒	-11.305
うまくいく	-11.3051
▁ここへ	-11.3052
章	-11.3052
▁형을	-11.3052
▁방을	-11.3052
帳	-11.3052
畑	-11.3052
▁저질렀	-11.3052
把握	-11.3052
찼	-11.3052
ドラッグ	-11.3052
閉め	-11.3052
誓う	-11.3053
▁챙기	-11.3053
言っても	-11.3053
任せて	-11.3053
発砲	-11.3053
大切	-11.3054
グリム	-11.3054
▁불리	-11.3055
見張って	-11.3055
셨군요	-11.3056
車両	-11.3056
▁明日は	-11.3056
▁危ない	-11.3057
▁무사히	-11.3057
クレイ	-11.3058
▁고집	-11.3058
疑って	-11.306
놈들	-11.3061
ラジオ	-11.3061
▁민간인	-11.3062
娘さん	-11.3062
▁수백만	-11.3062
ポリ	-11.3063
はっきり	-11.3064
▁조안	-11.3064
▁待てよ	-11.3065
어를	-11.3067
ロジャー	-11.3069
▁길은	-11.307
▁閣下	-11.307
▁飛び	-11.3071
差	-11.3071
▁실라	-11.3072
하니까요	-11.3072
ほう	-11.3072
ができる	-11.3072
▁逃げろ	-11.3073
▁살아서	-11.3073
告げ	-11.3073
▁사람들한테	-11.3073
▁남편은	-11.3077
▁話は	-11.3077
会え	-11.3078
▁갑니다	-11.3078
始まる	-11.308
▁현상	-11.308
▁합의	-11.3082
と言うの	-11.3082
るって	-11.3083
駐車場	-11.3084
隠した	-11.3086
トレイ	-11.3088
▁そうさ	-11.3088
▁쓰여	-11.3088
▁지금이	-11.3089
を送った	-11.3092
▁수배	-11.3092
▁중요하	-11.3092
▁칼이	-11.3093
▁전화로	-11.3093
ジョー	-11.3093
おいしい	-11.3095
るもの	-11.3096
▁何をしてる	-11.3096
▁알면서	-11.3096
▁하더군요	-11.3097
変わって	-11.3098
▁世界は	-11.3099
ちゃダメ	-11.31
▁보냈다	-11.3102
を行う	-11.3102
▁그자가	-11.3104
해야죠	-11.3104
ムダ	-11.3105
間違ってた	-11.3105
りません	-11.3105
注意を	-11.3105
訳じゃない	-11.3106
に向かってる	-11.3106
라우	-11.3109
パソコン	-11.3111
娼婦	-11.3111
供給	-11.3111
脱獄	-11.3111
▁リース君	-11.3111
明らかに	-11.3113
▁케이크	-11.3113
立た	-11.3114
쓸	-11.3114
벤	-11.3114
▁당연하죠	-11.3114
偶然	-11.3114
▁드론	-11.3116
済まない	-11.3116
▁남편을	-11.3118
▁불가	-11.3118
逃亡	-11.3118
▁ちがう	-11.3118
だろうと	-11.3118
▁테디	-11.3118
▁비교	-11.3119
を信じて	-11.3119
ランディ	-11.3122
▁なぁ	-11.3124
▁분야	-11.3125
必要と	-11.3126
ート	-11.3127
助手	-11.3129
답게	-11.313
逃れ	-11.3132
▁왔는지	-11.3132
私たちに	-11.3134
▁전선	-11.3134
無罪	-11.3135
▁26	-11.3135
誰よりも	-11.3135
▁논	-11.3135
▁심하게	-11.3135
▁보호해	-11.3136
55	-11.3137
▁식량	-11.3137
▁그들과	-11.3138
▁대원	-11.3139
▁상관없어요	-11.314
飲ま	-11.314
ようになった	-11.3141
▁残りの	-11.3141
▁데도	-11.3141
重要だ	-11.3141
ard	-11.3143
を呼べ	-11.3143
って言うの	-11.3143
▁ラボ	-11.3143
▁붙이	-11.3143
▁끔찍하	-11.3146
방울	-11.3147
▁곁	-11.3148
▁심장을	-11.3149
下の	-11.3152
腕を	-11.3153
に乗せ	-11.3154
▁ワシントン	-11.3154
知らせる	-11.3156
▁約	-11.3157
▁ごめんね	-11.316
▁도착했	-11.3161
番号を	-11.3162
捨てて	-11.3163
▁시민들	-11.3166
der	-11.3166
▁混乱	-11.3167
헌	-11.3168
彼らに	-11.3168
▁집은	-11.3169
▁反対	-11.3169
肌	-11.317
믹	-11.317
▁센트럴	-11.317
▁도서관	-11.317
そう言った	-11.317
▁제이크	-11.317
成果	-11.317
▁아나킨	-11.317
と思うよ	-11.317
市長	-11.3171
落ちる	-11.3171
の数	-11.3171
本気	-11.3172
ナンバー	-11.3172
ボーイ	-11.3172
ho	-11.3173
気付いた	-11.3173
▁심판	-11.3174
▁怪物	-11.3174
▁묘	-11.3175
▁치유	-11.3175
知ってるわ	-11.3175
▁川	-11.3176
CIA	-11.3177
貸	-11.3177
▁가보	-11.3178
言い訳	-11.318
▁片	-11.318
とり	-11.3181
シャー	-11.3182
▁족	-11.3182
▁お茶	-11.3183
▁ヴァ	-11.3184
受けた	-11.3185
▁돌봐	-11.3185
無関係	-11.3185
▁정신과	-11.3187
準備を	-11.3187
歴	-11.3188
探して	-11.3188
▁느끼는	-11.3189
大金	-11.3191
▁英語	-11.3194
殺人事件	-11.3195
キュ	-11.3195
並	-11.3196
▁전국	-11.3196
주시오	-11.3198
電話に出	-11.3199
らしく	-11.3201
外に出	-11.3203
ここの	-11.3204
▁テスト	-11.3205
드린	-11.3206
わず	-11.3208
▁찾아냈	-11.321
▁다친	-11.3213
しかし	-11.3214
ボルト	-11.3214
っぱ	-11.3215
▁돌아오면	-11.3215
▁않은데	-11.3215
▁運命	-11.3216
▁그레이	-11.3217
争	-11.3218
▁大変な	-11.322
오는	-11.3221
ast	-11.3223
▁ホテル	-11.3224
活	-11.3225
戦って	-11.3227
院	-11.3227
▁이세시마	-11.3229
アウト	-11.3229
▁토요일	-11.3229
喜ぶ	-11.3229
▁데려온	-11.3229
事じゃない	-11.323
殺人鬼	-11.323
▁빅터	-11.323
▁약이	-11.323
▁모시	-11.3231
트는	-11.3231
▁아예	-11.3231
▁틈	-11.3233
하냐	-11.3234
で死んだ	-11.3235
言いました	-11.3236
監視カメラ	-11.3236
▁주머니	-11.3236
金が	-11.3236
出て行って	-11.3237
한테는	-11.3241
▁시간이야	-11.3242
ピーター	-11.3243
無意味	-11.3243
▁ここだ	-11.3244
▁이것이	-11.3244
集まって	-11.3244
▁クイン	-11.3245
地下	-11.3246
苦	-11.3246
で一番	-11.3246
▁관계가	-11.3247
▁ニキータ	-11.3247
▁양쪽	-11.3248
▁버렸	-11.3249
▁그레이스	-11.325
▁잘됐네요	-11.3252
の部下	-11.3253
▁닦	-11.3253
▁눈으로	-11.3255
▁靴	-11.3255
▁있는거야	-11.3257
愚かな	-11.3258
るわよ	-11.3259
선이	-11.3259
▁再び	-11.3262
高度	-11.3263
▁써야	-11.3264
▁나라를	-11.3264
▁이겨	-11.3264
▁最悪の	-11.3267
止められない	-11.3268
▁심장이	-11.327
信頼できる	-11.327
▁버린	-11.3271
叔父	-11.3272
▁알겠다	-11.3275
座り	-11.3275
▁고려	-11.3276
浮	-11.3277
題	-11.3277
▁돌려주	-11.3281
に話した	-11.3281
▁ウィン	-11.3281
痕	-11.3282
▁父の	-11.3283
▁수키	-11.3286
야겠네요	-11.3286
婚	-11.3288
猿	-11.3288
▁다이아몬드	-11.3288
売春婦	-11.3288
頂戴	-11.3288
財布	-11.3288
ずつ	-11.3288
処置	-11.3288
▁살인사건	-11.3289
応じ	-11.3289
服を	-11.3289
▁당황	-11.3289
▁빌딩	-11.3289
タイミング	-11.329
▁투입	-11.329
▁시스코	-11.329
▁何でもない	-11.329
賢く	-11.329
商売	-11.3291
▁소송	-11.3292
▁사고가	-11.3293
触るな	-11.3293
キャリア	-11.3294
▁돌보	-11.3295
抜く	-11.3295
事業	-11.3296
▁멋있	-11.3297
▁잡았다	-11.3297
フー	-11.3297
▁as	-11.3297
ハッ	-11.3298
확	-11.33
▁못하고	-11.3303
いたわ	-11.3304
▁ビデオ	-11.3305
試してみ	-11.3305
▁파티를	-11.3305
▁벽에	-11.3306
버렸어요	-11.3306
十分に	-11.3307
やったの	-11.3308
ドリー	-11.331
▁오셨어요	-11.3312
どういう	-11.3312
▁나이가	-11.3312
▁너희들은	-11.3312
大変だ	-11.3314
▁세금	-11.3315
理由がある	-11.3315
やめる	-11.3315
▁그녀와	-11.3315
▁다르게	-11.3315
▁子供の頃	-11.3315
▁何年も	-11.3317
▁줄래요	-11.3317
▁자식들	-11.3317
▁모든게	-11.3318
▁말해서	-11.3318
▁마디	-11.3319
▁바르	-11.332
ありました	-11.3321
ウソを	-11.3321
けない	-11.3322
▁흑	-11.3323
を失って	-11.3323
鍵を	-11.3326
▁엄마도	-11.3328
▁35	-11.3329
を覚えてる	-11.3329
入らない	-11.3329
▁못했다	-11.333
▁あの子は	-11.333
년대	-11.3332
秘密を	-11.3332
없어	-11.3332
▁틀렸어	-11.3332
地下室	-11.3338
▁일들	-11.334
▁합시다	-11.334
を追う	-11.3342
待ってた	-11.3342
飲め	-11.3343
깊	-11.3343
力は	-11.3344
▁꿇	-11.3345
落とした	-11.3345
하기도	-11.3346
장은	-11.3347
騎士	-11.3348
▁싫으면	-11.3348
▁아름다워	-11.3348
スポーツ	-11.3348
舌	-11.3348
댈	-11.3348
▁스코필드	-11.3348
射撃	-11.3349
意図	-11.3349
▁들어가면	-11.3349
▁アーサー	-11.3349
ブラッド	-11.335
モンスター	-11.335
生まれる	-11.3351
▁고맙지만	-11.3351
cm	-11.3351
▁車に	-11.3353
巻き込まれ	-11.3354
言ってるんだ	-11.3354
▁선배	-11.3354
あまりにも	-11.3354
▁息子の	-11.3354
聖書	-11.3354
▁그딴	-11.3354
▁ここで何を	-11.3354
起きてる	-11.3355
キレイ	-11.3355
おかしく	-11.3357
삼	-11.3357
▁그치만	-11.3357
▁확인하고	-11.3357
▁마셨	-11.3358
▁뜻인지	-11.3358
▁생겼어요	-11.3361
っちゃう	-11.3361
やってみる	-11.3362
▁확실하	-11.3363
必要が	-11.3363
▁너머	-11.3363
▁않았다면	-11.3364
▁他の人	-11.3365
▁근거	-11.3367
▁되겠죠	-11.3367
▁마스터	-11.3367
理解する	-11.3369
▁やってみ	-11.337
落とす	-11.3371
デール	-11.3371
IP	-11.3374
▁수갑	-11.3377
相手を	-11.3378
支払	-11.3379
なかったわ	-11.338
でなければ	-11.3382
見てた	-11.3382
▁언어	-11.3383
▁한번도	-11.3384
버리는	-11.3385
思え	-11.3386
が出て	-11.3387
▁将軍	-11.3387
主義	-11.3388
完全な	-11.3389
▁수송	-11.3392
に入り	-11.3393
▁용서해	-11.3394
▁So	-11.3394
何故	-11.3396
薬物	-11.3396
▁하드	-11.3398
辞	-11.3398
▁確信	-11.3399
渡して	-11.3399
▁안아	-11.34
▁않네요	-11.3401
▁남성	-11.3401
▁거군	-11.3401
があったの	-11.3401
▁アリス	-11.3403
巻	-11.3404
▁息子は	-11.3404
取れ	-11.3404
캔	-11.3407
▁거짓말이	-11.3408
▁모리아티	-11.3408
▁테이블	-11.3408
涙	-11.3408
豆	-11.3408
▁덤벼	-11.3408
排除	-11.3408
有る	-11.3409
▁협력	-11.3409
襲われた	-11.3409
▁상당히	-11.3409
建て	-11.341
하셨어	-11.3411
あそこ	-11.3411
繰り返す	-11.3412
げる	-11.3412
だけでなく	-11.3412
▁있으세요	-11.3412
生存者	-11.3414
と思わない	-11.3414
▁구출	-11.3416
▁よろしい	-11.3417
▁手伝って	-11.3417
▁キミは	-11.3419
イラク	-11.3419
の命令	-11.3421
▁이유로	-11.3423
に戻	-11.3424
▁가야지	-11.3424
▁통로	-11.3425
▁아저씨가	-11.3427
覚えて	-11.3428
払え	-11.3429
赤ん坊	-11.3431
汚れ	-11.3432
システムを	-11.3434
▁または	-11.3435
付く	-11.3435
▁정원	-11.3438
どうか	-11.3438
적이야	-11.3438
▁에어	-11.3439
▁머릿속	-11.344
噛み	-11.3442
죄로	-11.3443
で見た	-11.3443
ローン	-11.3444
▁그러시	-11.3444
▁부품	-11.3445
で会おう	-11.3446
スさん	-11.3446
を切り	-11.3447
の事で	-11.3449
▁떨어졌어	-11.3449
▁주차장	-11.345
どうにか	-11.345
導	-11.345
▁매력	-11.3452
▁못했어요	-11.3452
▁they	-11.3452
▁ご主人	-11.3453
▁전체를	-11.3454
成り	-11.3454
王様	-11.3455
頭の中	-11.3458
▁大丈夫です	-11.3459
を待ってる	-11.3459
思われ	-11.346
▁봤죠	-11.346
검	-11.3462
溶	-11.3462
行きましょう	-11.3462
▁도박	-11.3463
使えない	-11.3464
드로	-11.3464
信じている	-11.3465
だからだ	-11.3465
▁말했	-11.3465
▁酷い	-11.3468
こうなる	-11.3468
算	-11.3469
戸	-11.3469
豊	-11.3469
▁고속도로	-11.3469
翼	-11.3469
菌	-11.3469
컴	-11.3469
▁애비게일	-11.3469
▁온라인	-11.3469
勘違い	-11.3469
調整	-11.3469
診断	-11.3469
▁버틸	-11.347
嫌だ	-11.347
船に	-11.347
ポッター	-11.347
執行	-11.347
▁동맹	-11.347
ミルク	-11.3471
▁깊이	-11.3471
▁축	-11.3471
▁배후	-11.3473
耐え	-11.3474
하셨죠	-11.3477
더러	-11.3478
しちゃった	-11.3481
사님	-11.3483
最悪	-11.3483
漏れ	-11.3484
数週間	-11.3486
しっかり	-11.3487
▁데서	-11.3488
▁편하게	-11.3488
呼ば	-11.3489
87	-11.3489
▁박사는	-11.3489
겠냐	-11.3496
▁윌이	-11.3497
▁지르	-11.3498
行か	-11.3498
▁카드를	-11.3498
ポン	-11.3499
人だけ	-11.3499
としての	-11.3499
ムリ	-11.3499
許す	-11.35
失う	-11.3501
▁スコット	-11.3502
願	-11.3502
聞こえ	-11.3503
▁표적	-11.3503
▁당신네	-11.3504
▁じっとして	-11.3506
▁我々には	-11.3506
訪	-11.3506
の前	-11.3506
▁좋군	-11.3509
▁닥치	-11.3511
当然	-11.3512
触れ	-11.3513
▁전통	-11.3513
要請	-11.3513
▁장면	-11.3514
준다면	-11.3514
▁도전	-11.3514
は私が	-11.3514
▁쉴	-11.3515
ジェン	-11.3516
▁발을	-11.3516
は知らない	-11.3517
無駄に	-11.3517
겐	-11.3519
整	-11.352
▁スーパーガール	-11.3521
▁내려와	-11.3522
▁機械	-11.3522
▁ブリ	-11.3523
スティー	-11.3523
▁전자	-11.3524
▁냉	-11.3524
塗	-11.3524
トレ	-11.3525
が有る	-11.3527
▁엘리	-11.3527
▁차지	-11.3528
仕事で	-11.3528
テキサス	-11.353
層	-11.353
譲	-11.353
▁사악한	-11.353
덩어리	-11.353
▁엘리아스	-11.353
ありがたい	-11.353
아프리카	-11.353
▁명심해	-11.353
▁첫번째	-11.3531
▁배에	-11.3532
시를	-11.3533
▁取って	-11.3533
▁화재	-11.3533
▁부탁해	-11.3533
損傷	-11.3533
パンツ	-11.3533
言ったように	-11.3533
悲しみ	-11.3533
▁혼자가	-11.3534
▁부패	-11.3534
▁직원들	-11.3537
たちを	-11.3537
▁인식	-11.3538
▁구하러	-11.3538
与える	-11.354
▁시작한	-11.3542
気をつけて	-11.3544
▁メキシコ	-11.3545
▁今回の	-11.3545
▁시동	-11.3545
会社を	-11.3546
▁몸은	-11.3547
ぼく	-11.3547
安全な	-11.3548
▁확신하	-11.3548
였나	-11.3548
死んでた	-11.3548
を残して	-11.3549
▁끝에	-11.355
イヤー	-11.355
守り	-11.355
があったら	-11.3552
中へ	-11.3553
スー	-11.3554
▁마저	-11.3554
出て行った	-11.3557
▁이곳에서	-11.3558
どうだい	-11.3558
▁철수	-11.356
有名	-11.3562
▁up	-11.3563
単に	-11.3566
▁걱정마	-11.3567
▁今や	-11.3567
行われ	-11.3568
だからね	-11.3568
년은	-11.3568
▁살아야	-11.3569
謝る	-11.3569
デブ	-11.3569
そんな事	-11.357
行きなさい	-11.357
いくら	-11.3571
ましい	-11.3572
▁그림자	-11.3572
▁끌려	-11.3574
▁무시하	-11.3576
▁探し	-11.3577
▁한계	-11.3578
▁되나요	-11.3578
▁それは何	-11.3579
룰	-11.358
わかって	-11.3581
▁잃었어	-11.3583
吸い	-11.3584
념	-11.3586
▁맞았어요	-11.3587
に参加	-11.3589
▁誰なの	-11.359
▁뭐해	-11.3591
▁This	-11.3591
▁なんてこった	-11.3591
▁습격	-11.3591
陰謀	-11.3591
▁저격수	-11.3591
▁그레이엄	-11.3591
戦略	-11.3592
やっつけ	-11.3592
祖母	-11.3592
▁カラム	-11.3592
ナス	-11.3593
▁올리버	-11.3593
▁사랑하지	-11.3593
部品	-11.3594
共に	-11.3594
▁해리슨	-11.3594
▁건드리지	-11.3596
は皆	-11.3597
らい	-11.3597
パイプ	-11.3597
▁両	-11.3597
▁어둠의	-11.3598
▁질병	-11.3599
スキ	-11.3599
会えない	-11.3599
▁되나	-11.36
▁君たちは	-11.36
▁휴대	-11.36
▁희망을	-11.36
▁불행	-11.3602
浮気	-11.3603
手紙を	-11.3603
▁필요하지	-11.3603
日中	-11.3604
▁지켜주	-11.3606
▁검사를	-11.3606
▁them	-11.3607
▁どうしても	-11.3608
▁가능성	-11.3609
▁수리	-11.361
がないと	-11.361
吐	-11.3612
ホル	-11.3614
▁들어가는	-11.3617
sh	-11.3617
頭痛	-11.3618
傷つけ	-11.3621
売れ	-11.3621
집니다	-11.3622
不可能だ	-11.3624
갑니다	-11.3624
▁거리를	-11.3624
▁話がある	-11.3626
時も	-11.3626
캐	-11.3627
주겠어	-11.3627
▁못된	-11.3629
くれるか	-11.363
▁赤ん坊	-11.363
外へ	-11.3631
ta	-11.3633
一般	-11.3638
決めて	-11.3638
▁로라	-11.3638
▁친구들은	-11.3639
助けてくれる	-11.364
気持ちは	-11.3641
줬는데	-11.3642
た方がいい	-11.3642
▁들면	-11.3642
見捨て	-11.3643
材	-11.3644
▁환영해	-11.3644
▁미스터	-11.3645
劇	-11.3645
▁서쪽	-11.3647
来るんだ	-11.3647
電力	-11.3648
▁빗	-11.3649
▁법정	-11.3649
終わらせる	-11.365
▁브루스	-11.3651
球	-11.3652
を買って	-11.3653
▁싫다고	-11.3653
そっくり	-11.3653
ガールフレンド	-11.3653
ゾンビ	-11.3653
頑張れ	-11.3653
▁불어	-11.3653
▁눌러	-11.3653
▁랜디	-11.3653
嘘をついた	-11.3653
▁フレディ	-11.3654
▁관찰	-11.3654
魅力的	-11.3654
警部補	-11.3655
▁열리	-11.3655
バード	-11.3656
姉妹	-11.3656
▁시스템이	-11.3657
▁시각	-11.3659
大事に	-11.366
ate	-11.366
正常	-11.3662
▁クソ野郎	-11.3664
気の毒	-11.3665
▁医療	-11.3665
▁하는거야	-11.3665
第二	-11.3666
▁あとで	-11.3666
▁이제는	-11.3673
개를	-11.3674
死ね	-11.3674
エス	-11.3675
切った	-11.3675
▁괜찮니	-11.3676
쟁	-11.3677
るなよ	-11.3679
▁말해줘요	-11.368
id	-11.3681
▁약속할게	-11.3682
役割	-11.3683
来るの	-11.3683
▁전쟁은	-11.3685
な奴	-11.3685
はどうだった	-11.3686
嬉しいわ	-11.3687
▁않을까	-11.3688
を探せ	-11.369
向かって	-11.369
▁흔적이	-11.3691
하자는	-11.3693
隠す	-11.3695
▁소속	-11.3696
叩	-11.3698
▁되겠어	-11.3699
▁입에	-11.37
▁어른	-11.3705
認	-11.3705
戻れ	-11.3705
▁번에	-11.3706
▁幽霊	-11.3706
はここ	-11.3709
ヘイ	-11.371
▁성인	-11.3711
멸	-11.3712
理由だ	-11.3712
▁保安官	-11.3713
酸	-11.3713
を調べて	-11.3714
フランク	-11.3714
쿨	-11.3715
オオカミ	-11.3715
▁포르노	-11.3715
▁right	-11.3715
撤退	-11.3715
▁갑판	-11.3715
選べ	-11.3716
▁사냥꾼	-11.3716
▁무기가	-11.3717
あなたと	-11.3717
群れ	-11.3718
上昇	-11.3718
の一員	-11.3718
弱点	-11.3718
ビッグ	-11.3718
돕	-11.3719
身に	-11.3719
▁했었	-11.372
노라	-11.3721
▁돌아왔어	-11.3721
下がれ	-11.3722
サンタ	-11.3723
ましょうか	-11.3723
るなんて	-11.3723
하십니까	-11.3725
▁アニー	-11.3726
▁영혼을	-11.3726
▁뭘까	-11.3727
の秘密	-11.3728
▁같아서요	-11.3729
▁만지	-11.3729
스코	-11.373
助けが必要	-11.373
待っている	-11.3733
何者か	-11.3734
▁고백	-11.3734
渡せ	-11.3735
夕食	-11.3735
戻す	-11.3736
くそ	-11.3736
終わってない	-11.3738
33	-11.374
▁권한	-11.3742
描	-11.3743
ランチ	-11.3747
▁知り合い	-11.375
▁이제부터	-11.3756
楽しく	-11.3757
였잖아	-11.3758
▁아니었다	-11.3758
捕まえる	-11.3759
続いて	-11.376
もう一度	-11.3761
▁노력해	-11.3763
▁울리	-11.3763
▁アクセス	-11.3763
であれば	-11.3765
했었는데	-11.3765
▁바뀌었	-11.3766
▁怒り	-11.3767
▁거로	-11.3768
▁나치	-11.3768
元に戻	-11.3768
ようとしてる	-11.3769
라곤	-11.377
▁크기	-11.377
年は	-11.377
▁鳥	-11.3772
▁싹	-11.3773
群	-11.3775
▁있을게	-11.3775
▁남는	-11.3776
言ったら	-11.3777
웅	-11.3777
▁계집	-11.3777
監禁	-11.3778
▁근육	-11.3778
▁데려올	-11.3778
テイラー	-11.3778
らせた	-11.3778
を殺そうとした	-11.3779
クルー	-11.3779
職員	-11.3779
기록	-11.3781
何ですか	-11.3781
▁出て行け	-11.3781
▁보입니다	-11.3782
▁自己	-11.3783
▁아빠랑	-11.3784
会い	-11.3784
と同じように	-11.3784
ine	-11.3785
開ける	-11.3785
▁조사를	-11.3786
じゃありません	-11.3786
22	-11.3786
▁편히	-11.3789
はどうする	-11.379
▁コー	-11.3791
解読	-11.3792
▁기운	-11.3792
するのが	-11.3794
▁傷つけ	-11.3798
▁자들이	-11.3802
クマ	-11.3802
ff	-11.3802
▁たまに	-11.3803
心は	-11.3803
維持	-11.3803
▁아빠도	-11.3806
▁잡은	-11.3807
を求めて	-11.3807
に座って	-11.3808
真似	-11.3809
▁社長	-11.3811
▁42	-11.3812
どれほど	-11.3812
▁죽이기	-11.3813
のご	-11.3814
▁자비	-11.3816
聞こえた	-11.3817
▁여자의	-11.3817
▁건설	-11.3817
▁여인	-11.3819
▁십	-11.382
▁앞서	-11.382
大丈夫か	-11.382
▁팔을	-11.3822
▁外で	-11.3823
壁に	-11.3826
リアム	-11.3827
▁물어봤	-11.3828
世の中	-11.383
▁前回	-11.3831
흔	-11.3831
▁원해요	-11.3831
クリスマス	-11.3833
▁ジュリエット	-11.3833
▁보냈어요	-11.3835
▁分かったわ	-11.3836
アレ	-11.3836
的には	-11.3837
떨어	-11.3838
抗	-11.3839
ゴール	-11.3839
見ない	-11.384
弁護	-11.384
は俺の	-11.384
アカデミー	-11.384
ヨーロッパ	-11.384
▁브라이언	-11.3841
▁텍사스	-11.3841
刀	-11.3841
膝	-11.3841
▁다행히	-11.3841
牧師	-11.3841
販売	-11.3841
▁need	-11.3841
大使館	-11.3841
録音	-11.3841
▁자국	-11.3841
近づけ	-11.3842
▁대단해	-11.3842
▁예측	-11.3842
素敵な	-11.3842
通過	-11.3842
大臣	-11.3843
▁변경	-11.3843
▁찍은	-11.3844
▁경영	-11.3844
部屋を	-11.3845
▁이해하지	-11.3845
▁페이지	-11.3847
▁풀어줘	-11.3848
받는	-11.3848
▁よせ	-11.3849
どこにいた	-11.3849
▁맺	-11.3849
▁계속해서	-11.385
▁何もかも	-11.385
売って	-11.385
▁아십니까	-11.3851
타운	-11.3851
を買った	-11.3852
アルファ	-11.3852
▁更に	-11.3854
▁보기엔	-11.3854
▁주먹	-11.3854
▁래리	-11.3855
▁않겠지	-11.3858
▁유전	-11.3859
いている	-11.3861
▁私にも	-11.3861
▁해내	-11.3863
住んでる	-11.3863
셈	-11.3863
永遠に	-11.3863
と話す	-11.3864
일은	-11.3865
▁구하려고	-11.3868
▁申し訳ありません	-11.3868
ソル	-11.3869
ol	-11.3869
▁싶네요	-11.387
の事だ	-11.3871
カット	-11.3873
焼	-11.3875
仲良く	-11.3876
났다	-11.3879
▁날개	-11.3879
▁없었는데	-11.3881
▁한거야	-11.3881
馬鹿な	-11.3881
▁놔줘	-11.3883
ように見える	-11.3884
▁건데요	-11.3884
▁해변	-11.3887
줄래요	-11.3887
▁자네한테	-11.3888
何なの	-11.389
医療	-11.3891
▁我々を	-11.3893
▁졸	-11.3893
▁빚을	-11.3893
▁시체가	-11.3894
出してくれ	-11.3894
行かせて	-11.3895
大切な	-11.3896
일지	-11.3896
多分	-11.3896
司	-11.3897
▁St	-11.3897
▁HR	-11.3898
▁났어요	-11.3898
셔도	-11.3899
体は	-11.3899
称	-11.3903
▁배심원	-11.3904
▁태어난	-11.3904
▁손대지	-11.3904
自慢	-11.3905
▁교환	-11.3905
ダナム	-11.3906
학교	-11.3906
▁형태	-11.3907
▁둘째	-11.3908
▁않도록	-11.3908
商	-11.3909
▁마커스	-11.3909
▁뉴욕에	-11.3909
甘い	-11.3909
▁장관	-11.3911
▁이거야	-11.3913
스트라	-11.3914
になりました	-11.3916
▁状況は	-11.3917
性の	-11.3917
ウル	-11.3919
겠습니까	-11.3919
▁셔츠	-11.392
▁되잖아요	-11.3921
ことか	-11.3922
▁자랑	-11.3923
なきゃならない	-11.3924
▁필요하다고	-11.3924
▁쉴드	-11.3925
を開け	-11.3928
が好きなの	-11.3931
▁불가능	-11.3931
を着て	-11.3935
해줄	-11.3935
▁120	-11.3937
が始まる	-11.3938
▁잊었	-11.3939
▁魔女	-11.3939
優秀	-11.394
役目	-11.394
▁지상	-11.3941
の記録	-11.3941
いける	-11.3941
を維持	-11.3942
▁시야	-11.3946
▁メアリー	-11.3948
▁짓도	-11.3948
が起きる	-11.3949
리언	-11.395
エリ	-11.3951
▁最初から	-11.3952
▁역할을	-11.3952
暴力	-11.3953
入り口	-11.3955
퇴	-11.3955
*	-11.3959
▁써요	-11.3959
per	-11.3959
36	-11.396
▁경로	-11.396
껏	-11.3961
クソ野郎	-11.3961
残した	-11.3962
確実	-11.3963
훈	-11.3965
▁누군가는	-11.3966
価	-11.3967
▁라디오	-11.3967
監督	-11.3967
衝撃	-11.3968
くだらない	-11.3968
軍曹	-11.3968
▁삭제	-11.3968
援助	-11.3968
同盟	-11.3968
たった	-11.3968
▁퇴근	-11.3968
楽しめ	-11.3968
おばさん	-11.3968
ええ	-11.3969
▁좌표	-11.3969
冷たい	-11.397
▁갱	-11.397
▁가져온	-11.397
▁결론	-11.397
▁과연	-11.3971
▁가족과	-11.3971
▁특정	-11.3971
▁가져갔어	-11.3972
▁単なる	-11.3972
▁우유	-11.3972
出かける	-11.3972
シェー	-11.3972
▁食料	-11.3973
を投げ	-11.3973
開いた	-11.3974
▁데이	-11.3975
▁찾아가	-11.3975
の様な	-11.3975
報道	-11.3976
▁목적이	-11.3976
するのを	-11.3978
ヒー	-11.3979
▁돌아서	-11.3979
乾杯	-11.398
▁센터	-11.398
겠다는	-11.3981
▁이륙	-11.3981
必要な	-11.3982
▁닉이	-11.3982
▁증명해	-11.3982
▁got	-11.3983
▁この世界	-11.3983
▁속으로	-11.3984
▁치르	-11.3986
▁등을	-11.3986
武器を	-11.3987
▁인상	-11.3987
未だ	-11.3987
迎えに	-11.3989
ロンドン	-11.3991
▁부른	-11.3994
뿐만	-11.3995
▁荷物	-11.3995
▁저쪽으로	-11.3996
표를	-11.3997
るかも	-11.3997
▁장소를	-11.3998
았지	-11.4
▁무언가	-11.4003
▁올해	-11.4003
だったのに	-11.4004
▁있었으면	-11.4007
할래	-11.4009
▁먼로	-11.4011
▁なかなか	-11.4012
▁알아내야	-11.4014
眠り	-11.4014
に移	-11.4015
過ごして	-11.4015
▁믿음	-11.4015
▁괴롭	-11.4016
▁상상도	-11.4017
▁한가지	-11.4018
졌지	-11.4019
▁수학	-11.402
▁くそったれ	-11.402
は終わった	-11.4021
を傷つけ	-11.4021
を撃つ	-11.4022
残す	-11.4023
▁해야죠	-11.4025
▁해야할	-11.4025
は全部	-11.4026
▁만일	-11.4026
を買う	-11.4026
▁인해	-11.4027
よろしく	-11.4027
あるんだ	-11.4028
機嫌	-11.4028
▁気にしないで	-11.403
屈	-11.4031
奇	-11.4031
イメージ	-11.4032
伊勢島	-11.4032
富	-11.4032
拭	-11.4032
▁about	-11.4032
託	-11.4032
▁さすが	-11.4032
検討	-11.4032
옵니다	-11.4032
指令	-11.4032
種族	-11.4032
表現	-11.4032
切断	-11.4032
やれば	-11.4032
▁점이	-11.4033
▁저러	-11.4033
エリカ	-11.4033
引っ越し	-11.4033
▁얼마든지	-11.4033
▁人々は	-11.4034
が入って	-11.4034
▁영업	-11.4034
▁녹색	-11.4035
見せてくれ	-11.4035
▁何時	-11.4036
科	-11.4036
後悔	-11.4036
▁사라질	-11.4039
▁この事件	-11.4039
밀리	-11.4039
寒い	-11.4039
▁있었다는	-11.404
▁ロス	-11.404
▁午後	-11.4041
▁피트	-11.4041
▁말고요	-11.4044
▁他人	-11.4044
裏に	-11.4045
▁않소	-11.4046
▁ボストン	-11.4046
▁좋고	-11.4046
▁빨아	-11.4047
によれば	-11.4048
▁멋지네요	-11.4051
速い	-11.4051
ワル	-11.4051
▁핀	-11.4054
▁엄만	-11.4054
층에	-11.4055
라며	-11.4057
▁いいのよ	-11.4057
は必要ない	-11.4058
▁화물	-11.4058
단계	-11.406
▁다니는	-11.4062
▁タイラー	-11.4062
▁머릿속에	-11.4063
▁법안	-11.4063
を傷つける	-11.4064
▁종류	-11.4066
中にいる	-11.4067
▁바비	-11.4068
圧力	-11.407
▁목소리가	-11.407
▁フランス	-11.4071
ハンナ	-11.4072
▁レイチェル	-11.4072
の船	-11.4072
▁세월	-11.4075
▁죽였다	-11.4079
おかげ	-11.408
▁있었다면	-11.408
本物	-11.408
▁불만	-11.408
▁백성들	-11.4083
▁두렵	-11.4084
▁아기가	-11.4084
▁해보자	-11.4084
乳	-11.4086
▁이상하게	-11.4086
▁경호	-11.4086
▁妊娠	-11.4087
▁닮았	-11.4088
▁알려줄	-11.4088
줬죠	-11.4088
しようとしてる	-11.4089
▁아니거든	-11.409
▁えー	-11.409
ウイ	-11.4094
航	-11.4095
落ち着いて	-11.4095
序	-11.4096
戦闘	-11.4096
忠告	-11.4096
直ちに	-11.4096
▁흘러	-11.4096
▁솜씨	-11.4096
▁쏟아	-11.4096
▁말했듯이	-11.4096
クイーン	-11.4097
▁여자랑	-11.4097
▁도와드릴까요	-11.4097
▁직전	-11.4098
▁흉터	-11.4098
に会って	-11.4098
グレ	-11.4099
ープ	-11.4099
▁現金	-11.4099
경찰	-11.41
メディア	-11.41
光栄です	-11.4102
▁Emotion	-11.4105
▁해안	-11.4106
▁ライト	-11.4108
▁황제	-11.4108
▁안전할	-11.411
すり	-11.4113
▁저에게	-11.4113
するもの	-11.4114
▁これって	-11.4115
▁病院に	-11.4115
▁외국	-11.4116
▁쪼	-11.4117
프리	-11.4118
ラッキー	-11.4118
喜んで	-11.412
▁열정	-11.412
▁そこを	-11.4121
フォース	-11.4122
▁자문	-11.4123
▁먹여	-11.4124
▁新たな	-11.4124
▁바이	-11.4124
▁살아요	-11.4125
▁もちろんだ	-11.4125
為の	-11.4126
虐殺	-11.4127
때까지	-11.4128
▁뜻은	-11.4129
▁정부가	-11.4129
▁何処に	-11.413
わせて	-11.413
▁ぶっ	-11.413
かもしれないが	-11.4131
▁경비원	-11.4133
と話して	-11.4134
逮捕された	-11.4134
▁혼란	-11.4135
▁어땠어	-11.4136
頼り	-11.4138
方法が	-11.414
▁손실	-11.4141
▁どうなる	-11.4142
試み	-11.4143
の敵	-11.4143
ッキー	-11.4143
▁그보다	-11.4143
強力な	-11.4144
▁아래로	-11.4144
自動	-11.4144
▁저쪽에	-11.4145
▁貴方が	-11.4146
一週間	-11.4146
▁本当か	-11.4147
▁도주	-11.4148
サマリア人	-11.4148
合った	-11.4149
하셨습니다	-11.4149
▁왔다고	-11.4149
だろうね	-11.415
壊した	-11.415
聞いたこと	-11.4152
▁부탁이야	-11.4153
▁여자야	-11.4153
働いている	-11.4154
出かけ	-11.4154
▁피자	-11.4156
말야	-11.4156
▁キャプテン	-11.4157
▁모르게	-11.4157
▁이들은	-11.4157
踏	-11.4159
てね	-11.4159
担	-11.416
脈	-11.416
衆	-11.4161
春	-11.4161
瑞希	-11.4161
▁무조건	-11.4161
▁충분한	-11.4161
キッチン	-11.4161
嫉妬	-11.4161
爪	-11.4161
滞在	-11.4161
▁다름없	-11.4161
▁지하철	-11.4161
挑戦	-11.4162
時間に	-11.4163
▁アーロン	-11.4163
パーカー	-11.4163
▁있군요	-11.4164
って言ってた	-11.4164
アナキン	-11.4164
ケンカ	-11.4164
▁あの夜	-11.4164
なります	-11.4165
そっち	-11.4165
ということだ	-11.4166
▁비서	-11.4166
▁첫날	-11.4167
してくれて	-11.4167
ング	-11.4168
렉	-11.4168
潜入	-11.4168
셨다	-11.4169
突入	-11.417
OK	-11.417
相手が	-11.4171
照	-11.4171
いいね	-11.4171
▁감정이	-11.4171
▁보이네	-11.4174
▁完璧な	-11.4176
▁왔군	-11.4177
▁채우	-11.4178
叔父さん	-11.418
もらえない	-11.4181
辺り	-11.4185
何者	-11.4185
残して	-11.4185
▁이루어	-11.4186
話している	-11.4186
苦し	-11.4186
▁御	-11.4186
取り引き	-11.4187
持ってた	-11.4188
▁계속해	-11.4188
であると	-11.4191
進化	-11.4193
▁나라면	-11.4193
得た	-11.4194
職場	-11.4196
テス	-11.4197
▁친구들을	-11.4197
キリスト	-11.4198
あたり	-11.4198
心配してる	-11.4199
助ける	-11.4201
国境	-11.4201
▁私から	-11.4202
行き先	-11.4202
下着	-11.4203
苦しんで	-11.4205
板	-11.4206
考えていた	-11.4207
がいて	-11.4208
▁들지	-11.4209
▁해줬	-11.421
プラン	-11.4211
しないわ	-11.4212
▁그런거	-11.4213
봤는데	-11.4213
▁who	-11.4213
払った	-11.4214
連れて行け	-11.4217
寝た	-11.422
새끼	-11.4222
廃	-11.4226
더구나	-11.4226
剥	-11.4226
▁즐거웠	-11.4226
棚	-11.4226
팀이	-11.4227
ディーン	-11.4227
精神科医	-11.4227
ショウ	-11.4227
▁But	-11.4227
▁起きろ	-11.4227
▁むしろ	-11.4228
実際に	-11.4228
▁最低	-11.4228
▁맨날	-11.4228
▁모욕	-11.4229
▁本当だ	-11.4229
▁どのように	-11.4229
革命	-11.423
▁잠입	-11.423
受信	-11.423
校	-11.423
やったこと	-11.423
ハンサム	-11.4231
▁지난번	-11.4233
控え	-11.4233
遅	-11.4233
▁윌리	-11.4233
日で	-11.4233
▁비록	-11.4234
▁날짜	-11.4236
▁없었던	-11.4237
▁박스	-11.4237
버스	-11.4238
▁드세요	-11.4238
リッパー	-11.4238
銃撃	-11.424
▁長い間	-11.424
日前	-11.424
おこう	-11.424
▁아르	-11.4241
なにを	-11.4241
▁俺ら	-11.4241
▁증명할	-11.4242
▁어째서	-11.4242
짓을	-11.4243
▁이겼	-11.4243
바닥	-11.4244
サーバー	-11.4244
▁무죄	-11.4245
▁ホワイト	-11.4247
▁생각하세요	-11.4248
▁사이트	-11.4248
▁좋아한다	-11.425
랑은	-11.4251
▁생물	-11.4252
프로	-11.4252
익	-11.4252
りたい	-11.4253
昔の	-11.4253
誓い	-11.4258
▁자세	-11.4258
せず	-11.4259
▁ここで何してる	-11.426
▁오라고	-11.426
トニー	-11.4261
困った	-11.4261
li	-11.4264
▁계셔	-11.4264
us	-11.4265
▁데일	-11.4265
座れ	-11.4265
▁半分	-11.4266
▁되겠네	-11.4266
▁사용할	-11.4266
▁풀려	-11.4267
ロシア	-11.4267
▁바꿨	-11.4268
▁勇気	-11.4269
▁みんなに	-11.427
▁해봐요	-11.427
惑	-11.4271
▁걱정은	-11.4272
▁목이	-11.4276
▁너에	-11.4276
▁アマンダ	-11.4276
▁米国	-11.4279
▁기억하지	-11.428
▁봐야겠어	-11.4281
るため	-11.4282
られません	-11.4283
金の	-11.4285
▁죽겠어	-11.4287
▁장난해	-11.4287
춰	-11.4289
▁자네와	-11.4289
死体を	-11.4289
첨	-11.4291
厄介	-11.4292
쩍	-11.4292
も良い	-11.4292
밍	-11.4292
磨	-11.4292
▁제기랄	-11.4292
▁가운데	-11.4292
▁비슷하	-11.4292
▁데이빗	-11.4292
▁렉터	-11.4292
珍しい	-11.4292
周辺	-11.4292
スコフィールド	-11.4292
んでいる	-11.4293
▁스콧	-11.4293
었소	-11.4293
▁종교	-11.4294
世代	-11.4295
ストレス	-11.4295
▁시작했어	-11.4295
▁Do	-11.4297
▁이야기는	-11.4297
運が	-11.43
達に	-11.4303
old	-11.4303
ain	-11.4303
彼女と	-11.4303
売る	-11.4304
자꾸나	-11.4304
▁衛星	-11.4304
▁사령관	-11.4306
ジョーダン	-11.4306
回る	-11.4306
完全	-11.4308
▁지방	-11.4309
▁ルール	-11.4309
を入れて	-11.4309
▁ずいぶん	-11.431
私には	-11.431
ここにいた	-11.431
▁噂	-11.4312
なれる	-11.4313
▁グリーン	-11.4314
ほどの	-11.4314
続けろ	-11.4317
▁모든걸	-11.4317
ピザ	-11.4317
▁이해해요	-11.4318
▁제니	-11.4321
▁ma	-11.4321
▁먹은	-11.4322
▁주기	-11.4323
다오	-11.4323
▁하나요	-11.4327
▁그럴지도	-11.4329
▁먹어야	-11.433
受け入れる	-11.4331
居るの	-11.4331
ak	-11.4333
昔から	-11.4333
同様に	-11.4334
▁타는	-11.4334
言われ	-11.4335
▁않겠어	-11.4337
▁좋겠	-11.4337
大会	-11.434
▁벗겨	-11.434
개가	-11.434
▁용기	-11.4342
봤지만	-11.4343
と結婚	-11.4343
▁음모	-11.4343
했을까	-11.4345
인간	-11.4345
そうじゃない	-11.4346
▁주변에	-11.4348
▁자금	-11.4348
▁努力	-11.4348
できないわ	-11.4348
預け	-11.4349
하셨나요	-11.435
▁만나자	-11.435
テッド	-11.435
トム	-11.435
があるのか	-11.4352
がいない	-11.4352
▁꽂	-11.4353
壊す	-11.4354
ぉ	-11.4355
を捕まえる	-11.4357
援	-11.4358
忍	-11.4358
条	-11.4358
낭	-11.4358
衣	-11.4358
病院に	-11.4358
▁방아쇠	-11.4358
セクシー	-11.4358
됨	-11.4358
밭	-11.4358
삐	-11.4358
▁가드너	-11.4358
砂漠	-11.4358
生涯	-11.4359
製造	-11.4359
過ち	-11.4359
▁강철	-11.436
人気	-11.436
ウェルズ	-11.4361
マジ	-11.4361
発明	-11.4363
▁今のところ	-11.4363
▁해커	-11.4363
ココ	-11.4364
叩き	-11.4364
乗れ	-11.4365
ると思う	-11.4366
手順	-11.4366
刑	-11.4366
▁데가	-11.4367
▁하나씩	-11.4367
再開	-11.4368
벽	-11.4368
▁いつまで	-11.4369
▁부리	-11.4369
▁비행기를	-11.437
書く	-11.437
アクセス	-11.437
▁집행	-11.437
関係が	-11.4372
▁말씀하시	-11.4373
▁용감한	-11.4373
太陽	-11.4374
持ってきた	-11.4374
▁그림을	-11.4374
急ぐ	-11.4375
▁심한	-11.4375
地点	-11.4376
だっけ	-11.4377
から電話	-11.4379
▁感染	-11.4381
▁全てが	-11.4383
딸	-11.4384
▁해봤	-11.4384
▁키워	-11.4384
日が	-11.4384
▁マーカス	-11.4384
렉스	-11.4384
홀	-11.4385
攻撃を	-11.4385
▁잘난	-11.4386
▁알파	-11.4388
刺激	-11.4388
やってきた	-11.439
テレ	-11.4392
▁보조	-11.4392
▁걱정돼	-11.4392
くれてありがとう	-11.4393
▁思ってた	-11.4393
▁고개	-11.4394
▁방으로	-11.4396
것을	-11.4396
▁좋았을	-11.4398
去って	-11.4398
貴重な	-11.4399
分間	-11.44
▁ヴァンパイア	-11.44
같아	-11.4401
▁거기로	-11.4401
バット	-11.4402
の上で	-11.4403
通りだ	-11.4403
思えない	-11.4405
하기엔	-11.4406
▁밝	-11.4406
▁나오지	-11.4406
▁주요	-11.4407
▁얘는	-11.4408
vi	-11.4408
れなかった	-11.4408
美人	-11.4409
エア	-11.4409
▁太陽	-11.4409
らなければ	-11.441
▁중독자	-11.4411
▁MI	-11.4411
▁브랜	-11.4411
▁ソール	-11.4412
▁대위님	-11.4413
憶えて	-11.4414
끼	-11.4416
▁들어서	-11.4416
▁정직	-11.4419
곱	-11.442
機会を	-11.4421
何回	-11.4421
▁먹을래	-11.4421
一緒に行く	-11.4422
틸	-11.4423
▁聖	-11.4423
ul	-11.4424
本の	-11.4424
▁가는데	-11.4424
あるのか	-11.4425
陽	-11.4425
랩	-11.4425
姫	-11.4425
デュバク	-11.4425
▁굉장한	-11.4425
癌	-11.4425
▁최후	-11.4425
▁스미스	-11.4425
雑誌	-11.4425
▁부엌	-11.4425
してみる	-11.4425
▁흐르	-11.4425
掛かる	-11.4425
▁今夜の	-11.4425
直せ	-11.4426
▁ケイレブ	-11.4426
끝	-11.4427
ホワイトハウス	-11.4427
▁悪くない	-11.4427
作動	-11.4428
▁노출	-11.443
▁ありえない	-11.4431
▁관여	-11.4432
ない限り	-11.4433
▁끌어내	-11.4438
見えて	-11.4439
日々	-11.4439
▁400	-11.4441
▁少しは	-11.4441
はとても	-11.4442
ディナー	-11.4443
を開けて	-11.4444
▁뿐입니다	-11.4446
▁고르	-11.4448
寄	-11.4449
▁잠이	-11.4449
凄い	-11.445
▁NY	-11.445
▁흔적을	-11.445
▁그러는데	-11.4452
タリー	-11.4453
▁두지	-11.4453
見られる	-11.4454
▁됐을	-11.4455
▁위험해요	-11.4456
▁치료를	-11.4457
▁사업을	-11.4457
▁정지	-11.4457
決まって	-11.4458
なんだけど	-11.4458
▁전까지는	-11.446
▁방이	-11.446
荷物	-11.446
▁여기야	-11.4461
どうなってる	-11.4461
▁아니까	-11.4462
方だ	-11.4462
優しく	-11.4462
することは	-11.4464
▁アレ	-11.4465
▁하겠어요	-11.4466
▁手術	-11.4467
었나요	-11.447
に会いに	-11.447
られん	-11.4471
となった	-11.4473
▁익명	-11.4475
ゼル	-11.4475
▁そこが	-11.4477
▁같았어	-11.4477
▁分からん	-11.4478
▁マク	-11.4479
▁도왔	-11.4479
▁화내	-11.4481
▁양복	-11.4482
捕ま	-11.4484
▁기회야	-11.4486
▁我	-11.4487
▁オレが	-11.4487
見なかった	-11.4487
重い	-11.4488
칙	-11.4489
コーン	-11.4489
▁갈라	-11.4489
納	-11.4491
적이지	-11.4491
に出て	-11.4492
흥	-11.4492
上院議員	-11.4492
菜々果	-11.4492
DEA	-11.4492
▁こんばんは	-11.4492
▁즐겨	-11.4492
▁グリム	-11.4492
暮らす	-11.4492
▁주니어	-11.4492
スタッフ	-11.4492
知ってるのか	-11.4493
予言	-11.4493
▁赤い	-11.4493
▁춤추	-11.4493
▁이라크	-11.4493
▁살해당했	-11.4493
▁중간	-11.4494
海兵隊	-11.4494
▁They	-11.4494
▁すぐ戻る	-11.4495
首相	-11.4495
つらい	-11.4496
▁또는	-11.4496
公表	-11.4496
▁くそっ	-11.4496
りゃ	-11.4497
▁대사관	-11.4498
がまだ	-11.4498
▁여권	-11.45
ごらん	-11.4501
간의	-11.4501
▁들키	-11.4502
カップ	-11.4503
▁이러다	-11.4505
▁선택을	-11.4505
バーグ	-11.4505
이라서	-11.4506
クリス	-11.4507
▁돌아가고	-11.4508
▁의뢰인	-11.4508
はあった	-11.451
▁氷	-11.4511
人類	-11.4512
▁무엇이든	-11.4513
知ってるだろ	-11.4514
▁어머니를	-11.4514
▁이용해서	-11.4515
ノート	-11.4515
▁요정	-11.4516
섬	-11.4516
会えた	-11.4516
▁운명	-11.4518
することを	-11.4518
おります	-11.4519
▁덕분	-11.4519
甘	-11.4519
▁あいつが	-11.4519
▁いいわね	-11.452
祈って	-11.4521
合え	-11.4524
▁괜찮다	-11.4525
▁숀	-11.4527
▁極めて	-11.4528
▁굴지	-11.453
▁린다	-11.4531
▁저번에	-11.4532
呪い	-11.4532
組んで	-11.4533
吹き飛ば	-11.4533
乗る	-11.4534
▁そんなことは	-11.4535
있을	-11.4535
2000	-11.4535
▁볼래	-11.4535
이었던	-11.4535
▁먹지	-11.4536
말이	-11.4537
間違えた	-11.4538
きたの	-11.4538
するつもりだ	-11.4539
しき	-11.454
いくつ	-11.4541
▁숨기는	-11.4541
셨습니까	-11.4541
▁확실	-11.4545
시켜야	-11.4545
ill	-11.4547
アレン	-11.4547
▁있다가	-11.4549
るべきだ	-11.4549
祈る	-11.4551
になったの	-11.4552
▁인생은	-11.4552
▁奥様	-11.4554
▁상관이	-11.4557
旧	-11.4557
▁희망이	-11.4559
旦那	-11.4559
▁아이스크림	-11.456
▁움직일	-11.456
▁캡틴	-11.456
トラビス	-11.456
ビュー	-11.456
▁색깔	-11.456
▁슬픈	-11.456
同情	-11.4561
48	-11.4561
見たこと	-11.4563
▁어려워	-11.4563
▁どんなに	-11.4563
シャワー	-11.4564
▁몰리	-11.4564
貴	-11.4565
▁대충	-11.4565
バッジ	-11.4566
▁승진	-11.4568
ブン	-11.4568
クロス	-11.4569
▁기다렸	-11.4569
来てくれて	-11.457
▁사실대로	-11.4571
▁ここに居	-11.4572
何もしてない	-11.4574
なくてもいい	-11.4574
▁캐시	-11.4574
ホテルの	-11.4576
▁파란	-11.4578
▁씨의	-11.458
パリ	-11.458
嫌われ	-11.458
尋ねた	-11.4582
変身	-11.4583
▁장식	-11.4584
週間前	-11.4584
▁회사에서	-11.4584
何もない	-11.4585
な男	-11.4586
▁들리나	-11.4589
リル	-11.459
께요	-11.4592
들로	-11.4592
해선	-11.4592
▁제출	-11.4592
▁같나	-11.4593
▁줄리	-11.4594
▁その子	-11.4594
伏せ	-11.4596
▁알았나	-11.4597
▁싫어해	-11.4598
▁ある日	-11.46
▁얘기도	-11.46
▁これを見て	-11.4601
じゃないけど	-11.4601
▁忘れた	-11.4603
▁安全な	-11.4604
▁凄い	-11.4608
家に帰	-11.4609
同じことを	-11.4611
▁때문에요	-11.4611
の頃	-11.4613
▁じゃあね	-11.4614
▁대부분은	-11.4614
▁테러범	-11.4615
スミス	-11.4618
었지만	-11.4618
わせる	-11.4619
▁호수	-11.4619
▁방법으로	-11.4619
存	-11.462
都	-11.4622
▁그중	-11.4622
▁회사가	-11.4625
▁조국	-11.4625
톱	-11.4625
▁그려	-11.4625
▁한때	-11.4627
札	-11.4627
듀	-11.4628
j	-11.4628
蜂	-11.4628
▁움직임	-11.4628
▁캘리포니아	-11.4628
陣	-11.4628
쌀	-11.4628
팽	-11.4628
少佐	-11.4628
▁いろんな	-11.4628
▁흔들	-11.4628
▁말썽	-11.4628
解雇	-11.4629
▁쿠퍼	-11.4629
スキラー	-11.4629
▁채널	-11.4629
▁기다려야	-11.4629
▁분명해	-11.463
▁후면	-11.463
実現	-11.463
ひざ	-11.4631
▁유혹	-11.4631
▁하나야	-11.4631
▁주시죠	-11.4633
▁다가오	-11.4635
▁편안	-11.4635
皆さん	-11.4636
본적	-11.4636
はもっと	-11.4637
▁바로잡	-11.4637
▁봐야지	-11.4637
これまで	-11.4637
▁*	-11.4637
を捕まえ	-11.4637
泣く	-11.4638
코프	-11.4638
アメリカ人	-11.4639
店で	-11.4639
ピート	-11.4639
▁남았어요	-11.4642
阻止	-11.4642
▁얘기한	-11.4642
体が	-11.4643
お祝い	-11.4647
洗い	-11.4649
상태	-11.465
なんですか	-11.465
하더군요	-11.4652
▁법원	-11.4654
센트	-11.4655
▁안될	-11.4655
했겠죠	-11.4656
▁チップ	-11.4656
▁アメリカ人	-11.4657
▁잘못이야	-11.4658
抜	-11.4659
▁왕자님	-11.466
▁su	-11.466
を探している	-11.466
베리	-11.466
スコット	-11.4661
품이	-11.4663
▁권리가	-11.4664
結婚式	-11.4664
クズ	-11.4666
볼래	-11.4666
アンナ	-11.4668
▁재미없	-11.4668
▁할수	-11.4669
してしまった	-11.467
驚いた	-11.467
▁받아요	-11.4671
▁살지	-11.4674
来たら	-11.4676
▁인정해	-11.4678
▁발명	-11.4679
▁지냈어	-11.4681
支え	-11.4681
ムー	-11.4681
留め	-11.4682
▁극장	-11.4683
ストラ	-11.4683
の生活	-11.4683
▁行かなきゃ	-11.4684
▁여왕이	-11.4685
▁아버지와	-11.4686
秘	-11.469
▁보면서	-11.469
を開始	-11.469
結婚する	-11.4692
▁하셨어요	-11.4693
▁주신	-11.4694
▁있는거	-11.4694
に従って	-11.4695
▁목적	-11.4696
贈	-11.4696
チョコレート	-11.4696
訴訟	-11.4696
▁돌연변이	-11.4696
▁샌드위치	-11.4696
カリフォルニア	-11.4696
キャメロン	-11.4696
▁나타난	-11.4696
▁스티븐	-11.4696
あちこち	-11.4696
追加	-11.4697
▁연쇄	-11.4697
付き合い	-11.4697
▁신체	-11.4697
▁둘이서	-11.4697
連行	-11.4697
혔어	-11.4699
▁충분하	-11.4699
▁충고	-11.47
▁들어보	-11.47
▁여자와	-11.47
▁생산	-11.47
▁気にするな	-11.4701
▁二人の	-11.4702
▁역사상	-11.4702
▁당기	-11.4703
たちに	-11.4704
▁잃었다	-11.4705
ous	-11.4706
▁反	-11.4706
님은	-11.4706
を殺したの	-11.4707
▁되요	-11.4708
と思い	-11.4709
▁기울	-11.4709
火事	-11.471
▁前にも	-11.4713
▁그러기	-11.4713
キャット	-11.4715
▁틀림없어	-11.4715
得る	-11.4718
から出て	-11.4718
店に	-11.472
▁어쩌죠	-11.472
▁괜찮다면	-11.4722
▁ブルー	-11.4723
▁정당	-11.4723
▁땀	-11.4724
▁있냐	-11.4724
るんじゃない	-11.4725
分かりません	-11.4725
してほしい	-11.4726
▁변호	-11.4726
▁말한다	-11.4726
▁확인할	-11.4728
몰	-11.4729
▁먼지	-11.4729
に来たの	-11.473
をやる	-11.4732
りしない	-11.4732
を聞く	-11.4733
見えます	-11.4734
▁제리	-11.4737
▁생겨	-11.4738
っきり	-11.4738
時まで	-11.4739
▁사정	-11.4741
運んで	-11.4741
▁불편	-11.4742
▁CEO	-11.4743
▁信じてくれ	-11.4744
▁무전기	-11.4744
飾	-11.4745
になっている	-11.4745
▁대령님	-11.4746
どれだけ	-11.4747
시네	-11.4748
▁부탁해요	-11.4748
▁반역자	-11.4749
クリア	-11.4749
フライ	-11.475
▁タバコ	-11.4751
▁얘가	-11.4751
閉	-11.4752
命令を	-11.4752
▁팔았	-11.4753
大丈夫よ	-11.4756
ここまで	-11.4758
▁기술이	-11.4759
善人	-11.4761
▁ルイス	-11.4761
▁앨	-11.4761
名の	-11.4762
風呂	-11.4763
▁포기하	-11.4764
票	-11.4765
▁ちくしょう	-11.4765
▁찾겠	-11.4765
塩	-11.4765
浸	-11.4765
網	-11.4765
톡	-11.4765
▁꼬맹이	-11.4765
▁봅니다	-11.4765
比べ	-11.4765
▁도우려	-11.4766
帰還	-11.4766
▁빈센트	-11.4766
ウエスト	-11.4766
するのよ	-11.4766
ロープ	-11.4766
▁침투	-11.4766
하는거야	-11.4766
▁변태	-11.4767
▁웨인	-11.4767
▁옥상	-11.4767
無用	-11.4768
▁共に	-11.4768
▁인생의	-11.4768
▁피어스	-11.4769
行ってた	-11.4769
よくない	-11.4769
やがって	-11.4769
ラク	-11.4769
▁당겨	-11.4769
▁재미있는	-11.477
感じだ	-11.477
▁My	-11.4771
페니	-11.4771
▁참가	-11.4771
バカな	-11.4772
▁핵심	-11.4772
事実を	-11.4773
▁없었습니다	-11.4773
来ます	-11.4773
埋葬	-11.4773
寄付	-11.4773
▁分かるか	-11.4774
▁軍曹	-11.4774
▁ヤツは	-11.4776
▁약해	-11.4777
▁그러세요	-11.4778
下で	-11.4778
▁포기하지	-11.478
▁짐을	-11.4781
▁벨트	-11.4782
됐고	-11.4783
▁완벽해	-11.4783
確認して	-11.4783
▁마십시오	-11.4785
▁何なんだ	-11.4785
하자면	-11.4786
▁잘하는	-11.4786
先は	-11.4787
モア	-11.4787
슬리	-11.4788
ナチ	-11.4792
普通の	-11.4792
▁エド	-11.4792
迷	-11.4793
▁반장	-11.4793
ロケット	-11.4794
▁お客様	-11.4794
判事	-11.4795
▁大切な	-11.4796
▁NSA	-11.4797
는지도	-11.4797
殺人の	-11.4798
▁만약에	-11.4799
▁칼로	-11.4804
パーク	-11.4804
넷	-11.4805
▁気分が	-11.4807
突然	-11.4807
▁만나면	-11.4809
的で	-11.481
怖くない	-11.481
▁雨	-11.4811
嫌いだ	-11.4811
は大丈夫	-11.4812
▁있겠	-11.4815
はならない	-11.4817
▁잡으	-11.4817
▁미소	-11.4818
▁사라졌어요	-11.4818
が変わった	-11.4819
出てる	-11.4823
やがる	-11.4823
▁알겠지만	-11.4824
たけど	-11.4824
▁발견되	-11.4825
辛	-11.4825
年以上	-11.4825
開く	-11.4826
▁構わない	-11.483
버리면	-11.483
▁삼촌이	-11.4831
を出せ	-11.4831
해줘서	-11.4832
近所	-11.4832
전을	-11.4833
기사를	-11.4834
氏の	-11.4834
七	-11.4834
▁좋겠군	-11.4835
▁とりあえず	-11.4835
図書館	-11.4835
▁월요일	-11.4835
▁지팡이	-11.4835
デイビス	-11.4835
探偵	-11.4835
▁わざと	-11.4835
▁복잡해	-11.4835
田舎	-11.4835
▁사모님	-11.4835
납니다	-11.4836
▁その日	-11.4836
▁あなた達は	-11.4836
▁비싼	-11.4836
▁사슴	-11.4836
を送り	-11.4837
を奪った	-11.4837
야겠군	-11.4837
チキン	-11.4837
▁娘の	-11.4838
フェンス	-11.4838
会社に	-11.4838
無効	-11.4839
トロール	-11.4839
었거든	-11.4839
▁놀고	-11.484
▁호박	-11.484
▁화난	-11.484
っていうの	-11.4841
を迎え	-11.4842
▁부친	-11.4843
▁소년이	-11.4843
▁해적	-11.4843
隊長	-11.4843
▁会って	-11.4844
▁본능	-11.4844
▁싶나	-11.4844
けば	-11.4846
ねー	-11.4846
してなかった	-11.4847
실을	-11.4847
時半	-11.4848
確認する	-11.4849
▁영화를	-11.485
▁소파	-11.4851
[...]
